11111111111111111111111000011110
11111111111111111111111110000010
00000000000000000000000010000010
00000000000000000000000101100111
11111111111111111111111000111100
00000000000000000000000010100110
11111111111111111111111110010000
11111111111111111111111100001100
00000000000000000000001000011001
11111111111111111111111110111000
00000000000000000000000110000010
00000000000000000000000100101011
11111111111111111111111110101011
11111111111111111111111100110110
00000000000000000000000001101011
11111111111111111111111101010111
11111111111111111111111111010100
00000000000000000000000110010001
11111111111111111111111101101001
11111111111111111111111100011001
00000000000000000000000110100111
00000000000000000000001010010110
00000000000000000000000100010100
11111111111111111111111111010110
11111111111111111111111110011101
11111111111111111111111111010011
11111111111111111111111111101101
00000000000000000000000001100110
11111111111111111111111101100001
11111111111111111111111011111110
00000000000000000000000011010111
00000000000000000000000000000000
00000000000000000000000000101011
11111111111111111111111110100011
11111111111111111111111010000010
11111111111111111111111100101000
00000000000000000000000101010010
00000000000000000000010011011100
11111111111111111111111100011100
11111111111111111111111010010001
11111111111111111111111110101100
00000000000000000000000110010011
00000000000000000000000001010111
00000000000000000000000100110111
00000000000000000000000110011111
00000000000000000000000011100001
11111111111111111111111100011111
00000000000000000000000001100111
00000000000000000000000000011010
11111111111111111111111110011011
11111111111111111111110110000110
00000000000000000000000110010101
00000000000000000000000011001010
00000000000000000000000001000010
00000000000000000000000000010111
00000000000000000000000000000111
00000000000000000000000001011000
00000000000000000000000001011000
11111111111111111111111100001011
11111111111111111111111111001010
11111111111111111111111111101101
00000000000000000000000011110111
11111111111111111111111010111100
00000000000000000000000100000001
11111111111111111111111101100111
11111111111111111111111101110110
11111111111111111111111111100111
00000000000000000000000001001101
11111111111111111111111111011011
11111111111111111111111111010101
11111111111111111111111110110110
00000000000000000000000010011010
11111111111111111111111101000100
11111111111111111111111100001001
11111111111111111111111101100110
11111111111111111111111101000010
00000000000000000000000001100110
00000000000000000000000000001000
11111111111111111111111000011101
00000000000000000000001110001010
00000000000000000000000101001010
00000000000000000000000010000010
11111111111111111111111110110011
11111111111111111111111011111100
11111111111111111111111000111110
00000000000000000000000010111100
11111111111111111111111101110101
11111111111111111111111111100100
11111111111111111111111100011110
00000000000000000000000010011100
00000000000000000000000010000110
00000000000000000000000001000011
11111111111111111111111011100000
00000000000000000000000010101101
11111111111111111111111101011000
00000000000000000000000000010100
11111111111111111111111110000111
11111111111111111111111101100001
00000000000000000000000110101110
00000000000000000000000101110001
11111111111111111111111110101011
11111111111111111111111001001100
00000000000000000000000010101110
11111111111111111111111100110111
11111111111111111111111111100100
00000000000000000000000110011111
11111111111111111111111000110011
11111111111111111111111101011001
11111111111111111111111100110010
11111111111111111111111111111101
11111111111111111111111101110000
11111111111111111111111110010000
00000000000000000000000100100001
11111111111111111111111110110000
11111111111111111111111000100001
11111111111111111111111110111000
11111111111111111111111110010110
11111111111111111111111111111111
11111111111111111111111101110101
11111111111111111111111111000110
11111111111111111111111010111110
11111111111111111111111011011111
00000000000000000000000011111011
11111111111111111111111011110010
11111111111111111111111001010111
11111111111111111111111111001100
11111111111111111111111101010111
11111111111111111111111101111111
00000000000000000000001011011000
11111111111111111111111011101010
00000000000000000000000110001111
11111111111111111111111110110111
00000000000000000000000001101101
00000000000000000000000011111000
00000000000000000000001011011110
11111111111111111111111001110111
00000000000000000000000111100101
00000000000000000000000101100010
11111111111111111111111001111001
00000000000000000000000100001100
00000000000000000000000110000110
11111111111111111111111101101100
11111111111111111111111111001000
00000000000000000000000110110011
00000000000000000000000000011110
11111111111111111111111101111001
11111111111111111111111100111001
00000000000000000000000000101000
00000000000000000000000001000101
00000000000000000000000001000111
11111111111111111111111010110011
11111111111111111111111100110101
11111111111111111111111111000100
11111111111111111111111111100001
00000000000000000000000010000000
11111111111111111111111101011001
00000000000000000000000010001001
00000000000000000000000000001111
11111111111111111111111111011101
00000000000000000000000011000000
11111111111111111111111110100000
00000000000000000000000000011111
11111111111111111111111111010100
11111111111111111111111100000001
11111111111111111111111001100111
00000000000000000000000011101011
11111111111111111111111110100110
00000000000000000000000000011001
11111111111111111111111100110000
11111111111111111111111111000101
00000000000000000000000100110001
00000000000000000000000000111010
11111111111111111111111010001111
11111111111111111111111111001010
11111111111111111111111011010101
00000000000000000000000011001001
11111111111111111111111010110011
11111111111111111111111001111011
11111111111111111111111011011100
11111111111111111111111010001000
00000000000000000000000101110111
11111111111111111111111101110010
00000000000000000000000011011001
11111111111111111111111101010010
11111111111111111111111101100010
00000000000000000000000101010100
00000000000000000000000100010010
11111111111111111111111110010001
11111111111111111111111000110100
11111111111111111111111110101100
00000000000000000000000011000111
00000000000000000000000010010110
11111111111111111111111110100000
11111111111111111111111001111000
00000000000000000000000110110110
11111111111111111111111111101001
11111111111111111111111011111100
00000000000000000000000010111111
11111111111111111111111011100100
11111111111111111111111011001110
00000000000000000000000101001110
00000000000000000000000100000111
00000000000000000000000000010011
11111111111111111111111100000110
00000000000000000000000110000011
00000000000000000000000001010001
00000000000000000000000001111001
00000000000000000000000001111001
11111111111111111111111111101110
00000000000000000000001101100101
00000000000000000000000011010011
00000000000000000000000100001111
00000000000000000000000000001010
11111111111111111111111100011011
00000000000000000000000010001101
11111111111111111111110111110111
11111111111111111111110111101001
00000000000000000000000001001110
00000000000000000000000100101100
11111111111111111111111011110100
00000000000000000000000000111111
11111111111111111111111110000101
11111111111111111111111101101101
00000000000000000000000011011101
11111111111111111111111110110001
00000000000000000000000001110110
00000000000000000000000011000011
00000000000000000000000111000101
11111111111111111111111111010001
00000000000000000000000011100000
11111111111111111111111011010111
00000000000000000000000100110110
11111111111111111111111000000111
11111111111111111111111010111000
00000000000000000000000000100001
00000000000000000000000001011100
00000000000000000000001000010110
11111111111111111111111011111001
00000000000000000000000011111000
00000000000000000000000011110011
00000000000000000000000001110111
11111111111111111111111110100000
11111111111111111111111001100111
11111111111111111111111110100111
00000000000000000000000000001110
11111111111111111111111101011100
11111111111111111111111000000101
11111111111111111111111101110111
00000000000000000000000010010100
00000000000000000000000001101111
00000000000000000000000010010001
11111111111111111111111100110101
11111111111111111111111100110000
00000000000000000000000001100100
00000000000000000000000011010001
00000000000000000000000101011000
00000000000000000000000011101100
00000000000000000000000000010011
11111111111111111111111110110001
11111111111111111111111101110001
11111111111111111111110111001110
00000000000000000000000010111110
00000000000000000000000111001101
00000000000000000000000010010010
11111111111111111111111111111100
00000000000000000000000010100100
11111111111111111111110100011010
11111111111111111111111101000101
00000000000000000000000000000011
00000000000000000000000100011111
11111111111111111111111010101100
11111111111111111111111100101001
11111111111111111111111101101010
00000000000000000000000010111100
00000000000000000000000001011011
11111111111111111111111100110000
00000000000000000000000110011110
00000000000000000000000100010100
11111111111111111111111100010110
00000000000000000000000000111001
11111111111111111111111101111110
00000000000000000000000101111000
00000000000000000000010111101101
00000000000000000000000000110001
11111111111111111111111010110110
11111111111111111111111100110001
00000000000000000000000000010000
00000000000000000000001001000101
11111111111111111111111111000001
11111111111111111111111111010100
11111111111111111111111111110001
11111111111111111111111100110010
11111111111111111111111001111110
11111111111111111111111110100000
11111111111111111111111110110010
11111111111111111111111100010011
11111111111111111111111101101001
11111111111111111111111111011110
11111111111111111111111101001000
11111111111111111111110110101111
11111111111111111111111110111011
11111111111111111111111110011110
11111111111111111111111101110010
00000000000000000000000100000000
00000000000000000000000110010101
00000000000000000000000001001000
11111111111111111111110001000001
00000000000000000000000010011000
11111111111111111111111101101010
11111111111111111111111101001000
00000000000000000000000101000010
00000000000000000000000000101111
00000000000000000000000001111100
00000000000000000000001000110010
11111111111111111111111110110000
11111111111111111111111010010101
00000000000000000000000100111011
00000000000000000000000000000010
11111111111111111111111111100011
00000000000000000000000010000111
11111111111111111111111111001010
11111111111111111111111001101011
00000000000000000000000111100100
11111111111111111111111111110010
11111111111111111111111100100001
00000000000000000000000010011011
11111111111111111111111100001011
11111111111111111111111011101011
11111111111111111111111001101011
00000000000000000000000011001101
00000000000000000000000010110100
00000000000000000000000110100010
00000000000000000000000001000000
11111111111111111111111100100101
11111111111111111111111100000110
00000000000000000000000001111100
11111111111111111111111010111000
00000000000000000000000001011000
00000000000000000000000000110111
11111111111111111111110111100000
11111111111111111111110110111101
00000000000000000000000100101111
11111111111111111111111100111111
11111111111111111111111111101011
11111111111111111111111110001011
00000000000000000000000000010000
00000000000000000000001010111001
00000000000000000000000010001110
00000000000000000000000011110000
11111111111111111111111110010001
11111111111111111111111101010011
00000000000000000000000100010001
11111111111111111111111111001010
00000000000000000000000011111010
11111111111111111111111100110011
11111111111111111111111010011001
00000000000000000000001011011011
00000000000000000000000001111100
00000000000000000000000001110001
11111111111111111111110110010010
00000000000000000000000000011100
00000000000000000000000011000001
11111111111111111111111101010101
11111111111111111111111111001000
11111111111111111111111101100011
00000000000000000000000011100000
11111111111111111111111101101110
11111111111111111111111111100110
00000000000000000000000001110110
00000000000000000000000000010101
00000000000000000000000000101100
00000000000000000000000011000000
00000000000000000000000000001100
00000000000000000000000010001100
11111111111111111111111111101110
11111111111111111111111111110010
00000000000000000000000000000001
11111111111111111111111100010111
00000000000000000000000110111110
11111111111111111111111001000011
00000000000000000000001000111010
00000000000000000000001010110001
00000000000000000000001001110101
00000000000000000000000000110111
11111111111111111111111111111110
11111111111111111111111111100111
11111111111111111111110111000100
11111111111111111111110100111000
11111111111111111111111111001101
11111111111111111111111101111011
11111111111111111111110100110010
00000000000000000000000101010110
00000000000000000000000101011000
00000000000000000000000010110010
00000000000000000000000101100000
00000000000000000000000000001011
00000000000000000000000101101101
11111111111111111111111110001110
11111111111111111111111101011001
00000000000000000000000001010111
11111111111111111111111111110111
00000000000000000000000100011011
11111111111111111111111010010111
11111111111111111111111111010100
11111111111111111111111111100000
00000000000000000000000011101100
11111111111111111111111101100110
00000000000000000000000111100111
00000000000000000000000010101100
00000000000000000000000011011111
00000000000000000000001011101011
11111111111111111111111101110100
00000000000000000000000000111001
11111111111111111111111111100000
00000000000000000000000100000100
11111111111111111111111011111110
11111111111111111111111111010011
00000000000000000000001101010011
00000000000000000000000011101001
11111111111111111111111101111000
00000000000000000000000100011111
00000000000000000000000000110100
00000000000000000000000100111111
00000000000000000000000001101000
11111111111111111111111101001110
00000000000000000000000010000000
00000000000000000000000000101001
11111111111111111111111110011110
11111111111111111111111100000010
00000000000000000000000001011100
00000000000000000000000001100111
11111111111111111111111101000001
11111111111111111111111111101000
00000000000000000000000111000111
11111111111111111111111110000100
11111111111111111111111110110000
00000000000000000000000010100000
11111111111111111111111100101001
00000000000000000000000101011010
00000000000000000000000011110011
00000000000000000000000000100011
00000000000000000000000001000101
00000000000000000000000001101000
11111111111111111111111111010111
11111111111111111111111100010010
00000000000000000000000101110100
00000000000000000000000000110101
00000000000000000000000000000100
00000000000000000000001010010001
00000000000000000000000100110000
00000000000000000000000010010011
00000000000000000000001001111100
11111111111111111111111101011011
00000000000000000000000001101110
00000000000000000000000001010101
00000000000000000000000100100001
11111111111111111111111010101101
11111111111111111111111100000110
00000000000000000000000100111110
00000000000000000000000000000101
00000000000000000000000010101101
00000000000000000000000011111101
00000000000000000000000010101101
00000000000000000000000011011100
00000000000000000000000011101111
00000000000000000000010010111011
00000000000000000000000001111001
00000000000000000000000011110111
00000000000000000000000001010100
00000000000000000000000110011001
00000000000000000000000100111000
00000000000000000000000010101001
00000000000000000000000011111110
00000000000000000000000011001011
11111111111111111111111111011111
11111111111111111111111111101100
00000000000000000000000001011010
00000000000000000000000101000010
00000000000000000000000010100110
11111111111111111111111111000011
00000000000000000000000000101101
11111111111111111111111100110001
00000000000000000000000001001010
11111111111111111111111100000000
11111111111111111111111101001011
11111111111111111111111110001110
11111111111111111111111101010011
00000000000000000000000100110100
11111111111111111111111111000001
11111111111111111111111111000001
11111111111111111111111111000001
11111111111111111111111111000001
11111111111111111111111111000001
11111111111111111111111111000001
11111111111111111111111111000001
11111111111111111111111111000001
11111111111111111111111111000001
11111111111111111111111111000001
11111111111111111111111111000001
11111111111111111111111111000001
11111111111111111111111111000001
11111111111111111111111111000001
11111111111111111111111111000001
11111111111111111111111111000001
11111111111111111111111111000001
11111111111111111111111111000001
11111111111111111111111111000001
11111111111111111111111111000001
11111111111111111111111111000001
11111111111111111111111111000001
11111111111111111111111111000001
11111111111111111111111111000001
