11111111111111111111111111010100
00000000000000000000000011101111
11111111111111111111111111100011
11111111111111111111111010011101
00000000000000000000000000110010
11111111111111111111110111010011
00000000000000000000000110111000
11111111111111111111111101011011
11111111111111111111111101001111
11111111111111111111111101011000
11111111111111111111111111000010
11111111111111111111111110011101
00000000000000000000000001111110
00000000000000000000000000011101
00000000000000000000000000001110
11111111111111111111111110101100
11111111111111111111111010110111
11111111111111111111111100011011
11111111111111111111111110001011
11111111111111111111111110000111
00000000000000000000000000100100
00000000000000000000000001010010
00000000000000000000000010010101
00000000000000000000000000011111
11111111111111111111111111010011
00000000000000000000000010100001
11111111111111111111111101001101
00000000000000000000000001000011
11111111111111111111111110110001
00000000000000000000000000101110
00000000000000000000000000011100
00000000000000000000000001101110
11111111111111111111111110101011
11111111111111111111111010110010
11111111111111111111111100011100
11111111111111111111111011111100
11111111111111111111111101111100
00000000000000000000000011111110
00000000000000000000000000101000
11111111111111111111111011001100
00000000000000000000000001111011
11111111111111111111111111011100
00000000000000000000000010110111
11111111111111111111111100100110
11111111111111111111111110101011
00000000000000000000000101001000
00000000000000000000000001011000
11111111111111111111111010111011
00000000000000000000000010111111
00000000000000000000000010101101
00000000000000000000000011100110
11111111111111111111111110101000
00000000000000000000000001011000
00000000000000000000000000000111
11111111111111111111111110001001
11111111111111111111111111010000
00000000000000000000000010101001
00000000000000000000000010110101
00000000000000000000001101110000
00000000000000000000000000001011
11111111111111111111111100010101
00000000000000000000000110001001
11111111111111111111111011111111
00000000000000000000000001000010
00000000000000000000000100100110
00000000000000000000000000100111
11111111111111111111111100101001
11111111111111111111111101101101
11111111111111111111111011101101
00000000000000000000000100000111
00000000000000000000000000111111
11111111111111111111111101010000
11111111111111111111111110001100
11111111111111111111111011011101
00000000000000000000000000000001
00000000000000000000000001110010
00000000000000000000000000010101
00000000000000000000000101010101
11111111111111111111111011000111
00000000000000000000000011011001
11111111111111111111111001111111
11111111111111111111111101010101
11111111111111111111111110101001
11111111111111111111111101010000
11111111111111111111111010001100
11111111111111111111111111000110
11111111111111111111111101100000
11111111111111111111111110010110
11111111111111111111111110011111
00000000000000000000000010010001
11111111111111111111111101101111
00000000000000000000000000100101
00000000000000000000000000111010
11111111111111111111111101110011
00000000000000000000000001101010
00000000000000000000000000000100
00000000000000000000000010010011
11111111111111111111111111100111
11111111111111111111111100011000
11111111111111111111111100011010
11111111111111111111111011111011
11111111111111111111111001111000
00000000000000000000000011010101
00000000000000000000000110100011
00000000000000000000000010010100
11111111111111111111111100000101
00000000000000000000000011110111
11111111111111111111111101101101
00000000000000000000000010111111
00000000000000000000000000001111
11111111111111111111111110000110
00000000000000000000000111010110
00000000000000000000000001111101
00000000000000000000000001000001
00000000000000000000000000100000
00000000000000000000000001011101
00000000000000000000000100100000
11111111111111111111111101100111
00000000000000000000000001011000
00000000000000000000000001010101
00000000000000000000000010110110
11111111111111111111111101000111
00000000000000000000000010001010
11111111111111111111111110000100
00000000000000000000000000001011
00000000000000000000000000111000
11111111111111111111110111101110
11111111111111111111111100101001
11111111111111111111111100110110
00000000000000000000000100001111
11111111111111111111111111100011
11111111111111111111111010111110
11111111111111111111111101111000
00000000000000000000000010110101
11111111111111111111111001011001
11111111111111111111111110010111
11111111111111111111111100010001
11111111111111111111111111101100
00000000000000000000000000001111
00000000000000000000000000000111
11111111111111111111111101010100
11111111111111111111111111000000
00000000000000000000000011100011
11111111111111111111111110100011
11111111111111111111111100010000
11111111111111111111111110010100
11111111111111111111111101011001
11111111111111111111111101011110
11111111111111111111111011000000
00000000000000000000000001001000
11111111111111111111111111110000
00000000000000000000000000001101
11111111111111111111111011000111
00000000000000000000000001001110
11111111111111111111111111000000
11111111111111111111111110100100
00000000000000000000000000101111
11111111111111111111111100100111
11111111111111111111111000010000
11111111111111111111111111011110
11111111111111111111111101111001
00000000000000000000000010001011
00000000000000000000000011011100
11111111111111111111111111001101
11111111111111111111111101111110
11111111111111111111111110011001
11111111111111111111111110110100
11111111111111111111111101101100
11111111111111111111111011001011
00000000000000000000000001010100
11111111111111111111111100110100
00000000000000000000000000110111
00000000000000000000000000111010
00000000000000000000000001001101
00000000000000000000000000011000
11111111111111111111111101001111
11111111111111111111110110111101
11111111111111111111111111001110
11111111111111111111111110100110
11111111111111111111111110110000
11111111111111111111111011000011
11111111111111111111111110011100
11111111111111111111111110000000
00000000000000000000000010110100
00000000000000000000000001000110
00000000000000000000000001010001
11111111111111111111111110001101
00000000000000000000000001001011
11111111111111111111111111110010
11111111111111111111110111100101
11111111111111111111111110110111
11111111111111111111111100100101
00000000000000000000000000000100
11111111111111111111111000011010
11111111111111111111111011001110
00000000000000000000000001011010
11111111111111111111111101111111
11111111111111111111111010001001
11111111111111111111111001100111
00000000000000000000000001110100
11111111111111111111111011101011
11111111111111111111111101001010
00000000000000000000000111111010
00000000000000000000000010011010
11111111111111111111111001001100
11111111111111111111111100111000
11111111111111111111111100001000
11111111111111111111111101001000
11111111111111111111111010111010
00000000000000000000000101101111
11111111111111111111111111100010
00000000000000000000000111101000
11111111111111111111111100001101
00000000000000000000000100010110
11111111111111111111111111001010
00000000000000000000000010100001
11111111111111111111111111001110
00000000000000000000001000001011
00000000000000000000000000011010
11111111111111111111111111111111
11111111111111111111111101001100
00000000000000000000000001010111
11111111111111111111111101111100
00000000000000000000000101110100
11111111111111111111111100100000
00000000000000000000000001001001
11111111111111111111111111101011
11111111111111111111111100000011
11111111111111111111111110011100
00000000000000000000000011110010
11111111111111111111111111111100
11111111111111111111111010111000
00000000000000000000000001111101
11111111111111111111111011001011
00000000000000000000000001011100
11111111111111111111111101101100
11111111111111111111111101011001
00000000000000000000001000011011
11111111111111111111111111011011
00000000000000000000000010101000
11111111111111111111111001110101
00000000000000000000000001110010
11111111111111111111111101111101
11111111111111111111111101111011
11111111111111111111111001101010
11111111111111111111111110111001
11111111111111111111111010100110
11111111111111111111111111001100
11111111111111111111111000101110
11111111111111111111111101000100
11111111111111111111111100000100
00000000000000000000000000010110
11111111111111111111111110101000
11111111111111111111111100110001
11111111111111111111111111100110
11111111111111111111111101001011
11111111111111111111111100000111
11111111111111111111111111010101
00000000000000000000000001111001
11111111111111111111111101101011
11111111111111111111111110000101
00000000000000000000000001110111
11111111111111111111111101000111
00000000000000000000000100010101
11111111111111111111111101111101
11111111111111111111111000100110
11111111111111111111111111100111
11111111111111111111111010000111
11111111111111111111111101100101
11111111111111111111111101100000
00000000000000000000000000110101
11111111111111111111111100000000
00000000000000000000000001010100
00000000000000000000000101110111
00000000000000000000000000111110
00000000000000000000000001001101
00000000000000000000000001001000
00000000000000000000000001001000
11111111111111111111111111111110
11111111111111111111111100100000
11111111111111111111111010111010
00000000000000000000000100110010
11111111111111111111111010100100
00000000000000000000000000101110
00000000000000000000000100010001
00000000000000000000000000011010
00000000000000000000000010011011
11111111111111111111111111101100
11111111111111111111111010001001
00000000000000000000000010001010
00000000000000000000000001110000
00000000000000000000000001011011
00000000000000000000000000101011
11111111111111111111111101011100
00000000000000000000000000011110
00000000000000000000000100111011
11111111111111111111111100100100
00000000000000000000000000011011
11111111111111111111111111010000
00000000000000000000000011011001
11111111111111111111111110011011
00000000000000000000000000111000
11111111111111111111111001100000
11111111111111111111111011010011
11111111111111111111111101101011
00000000000000000000000100111001
00000000000000000000000001100111
00000000000000000000000000101100
11111111111111111111111001110100
00000000000000000000000100000100
00000000000000000000000001110001
00000000000000000000000001000111
00000000000000000000000010010101
00000000000000000000010011110010
00000000000000000000000110001110
00000000000000000000000111011011
11111111111111111111111111011010
00000000000000000000000111001110
00000000000000000000000000110010
11111111111111111111111011100001
11111111111111111111111111100011
11111111111111111111111101100101
11111111111111111111111100101101
11111111111111111111111110101101
11111111111111111111111111111000
00000000000000000000000000011010
11111111111111111111111100110000
00000000000000000000000000001001
11111111111111111111111111110110
00000000000000000000000110001011
00000000000000000000000001000100
11111111111111111111111100010001
00000000000000000000000001001100
00000000000000000000000001101010
11111111111111111111111100001101
00000000000000000000000010001000
00000000000000000000000111010001
11111111111111111111111010101010
11111111111111111111111111110110
00000000000000000000001000010000
11111111111111111111111110011000
11111111111111111111111100001011
11111111111111111111111011010100
00000000000000000000000001010101
00000000000000000000000010110101
11111111111111111111111101111000
00000000000000000000000011000110
00000000000000000000000001101110
11111111111111111111111110010100
00000000000000000000000001001110
11111111111111111111111111001011
00000000000000000000000011111010
11111111111111111111111110110001
11111111111111111111111101010101
00000000000000000000000001001111
11111111111111111111111101100111
11111111111111111111111010000010
11111111111111111111111110001011
00000000000000000000000000010101
00000000000000000000000001101111
11111111111111111111111110001011
00000000000000000000000000111000
11111111111111111111111111100001
00000000000000000000000000010001
00000000000000000000001000100000
00000000000000000000000001101110
11111111111111111111111110000001
00000000000000000000000001001001
11111111111111111111111100101001
11111111111111111111111111100011
11111111111111111111111100001110
11111111111111111111111010001100
11111111111111111111111111100101
00000000000000000000000000001110
11111111111111111111111101100101
11111111111111111111111100010111
00000000000000000000000010011011
00000000000000000000000010100110
00000000000000000000000011111010
00000000000000000000000100101011
11111111111111111111110010101100
11111111111111111111111111110010
00000000000000000000000100000111
11111111111111111111111111010101
11111111111111111111111100011100
11111111111111111111111111000101
00000000000000000000000001011110
00000000000000000000000010010010
00000000000000000000000001001110
11111111111111111111111011011001
11111111111111111111111001010111
00000000000000000000000001001100
11111111111111111111111011100011
00000000000000000000000000010000
11111111111111111111111010001101
11111111111111111111111101000100
11111111111111111111111111010111
11111111111111111111111100101100
11111111111111111111111110110001
00000000000000000000000011001000
11111111111111111111111111010101
11111111111111111111111110001110
11111111111111111111111110011010
11111111111111111111111011000111
11111111111111111111111110100110
00000000000000000000000100011100
00000000000000000000000010100101
00000000000000000000000000011000
11111111111111111111110100010001
11111111111111111111110111101011
00000000000000000000000111111011
00000000000000000000000100101010
11111111111111111111110100111101
11111111111111111111111100010110
00000000000000000000000011001011
00000000000000000000000001010000
00000000000000000000000111000101
00000000000000000000000000000100
11111111111111111111111110001110
00000000000000000000000101010010
11111111111111111111111011111110
00000000000000000000000111111110
11111111111111111111111011100110
00000000000000000000000001010100
00000000000000000000001010100000
11111111111111111111111101110101
11111111111111111111111110001011
11111111111111111111111101101001
11111111111111111111111111110110
11111111111111111111111100001101
11111111111111111111111110111000
00000000000000000000000001111100
00000000000000000000000001111111
00000000000000000000000010001000
11111111111111111111111110110011
00000000000000000000000001000011
00000000000000000000000011011101
11111111111111111111111100110011
11111111111111111111111101010101
11111111111111111111111110001111
00000000000000000000000010000011
00000000000000000000000010101011
11111111111111111111111111001010
00000000000000000000001010101001
00000000000000000000000000000100
00000000000000000000000101011100
00000000000000000000001011110110
11111111111111111111111010011100
00000000000000000000000100011000
11111111111111111111111111011011
00000000000000000000000011100111
11111111111111111111111111100100
00000000000000000000000000100110
00000000000000000000000101000100
00000000000000000000001000001110
00000000000000000000001010101011
00000000000000000000000001110000
00000000000000000000000101011111
00000000000000000000000111111010
00000000000000000000000001011000
00000000000000000000000010010011
11111111111111111111111011111110
11111111111111111111111101100001
11111111111111111111111100110011
00000000000000000000001000011010
11111111111111111111111100101101
11111111111111111111111101101111
00000000000000000000000000100111
00000000000000000000000010101010
11111111111111111111111000010001
11111111111111111111111011101000
11111111111111111111111101101100
11111111111111111111111011011100
11111111111111111111111010010100
00000000000000000000001000001001
11111111111111111111111110100110
11111111111111111111111111010001
00000000000000000000000000101000
00000000000000000000001001001000
11111111111111111111111100011010
00000000000000000000001000000101
00000000000000000000000011010000
11111111111111111111111010000111
11111111111111111111111101001111
11111111111111111111111110111011
11111111111111111111111110000010
11111111111111111111111110110101
00000000000000000000000001111100
00000000000000000000000000101000
00000000000000000000001001101110
11111111111111111111111110011001
00000000000000000000000010111110
00000000000000000000000100011100
00000000000000000000000001011100
11111111111111111111111001001111
00000000000000000000001001110000
00000000000000000000000000111110
11111111111111111111110111010111
00000000000000000000000001000010
11111111111111111111111100011011
00000000000000000000001000101110
11111111111111111111111011000001
11111111111111111111111111111111
11111111111111111111111010101001
11111111111111111111111101011011
11111111111111111111111110101000
00000000000000000000000001101111
11111111111111111111111010000111
00000000000000000000000010001011
00000000000000000000000101011101
00000000000000000000000001001001
00000000000000000000000100101011
