11111111111111111111111110100011
11111111111111111111111110100100
11111111111111111111111111010111
00000000000000000000000001100100
00000000000000000000000001101101
00000000000000000000000010001100
00000000000000000000000001010001
00000000000000000000000001011100
00000000000000000000000111001101
00000000000000000000000011000001
11111111111111111111111111001100
11111111111111111111111110100001
00000000000000000000000010010011
00000000000000000000000000000100
00000000000000000000000000000101
00000000000000000000000010110111
00000000000000000000000001110001
00000000000000000000000001110101
00000000000000000000000001110101
00000000000000000000000010101110
00000000000000000000000001101100
00000000000000000000000001001011
00000000000000000000000001111100
00000000000000000000000000010101
11111111111111111111111100011101
00000000000000000000000001110011
00000000000000000000000000000110
00000000000000000000000001011011
11111111111111111111111111010011
00000000000000000000000000100001
11111111111111111111111000101011
00000000000000000000000000000101
00000000000000000000000001001101
11111111111111111111111111000001
11111111111111111111111111001001
00000000000000000000000000101000
00000000000000000000000001101001
00000000000000000000000001110000
00000000000000000000000101011000
00000000000000000000000001011011
11111111111111111111111110101010
11111111111111111111111111110110
00000000000000000000000000000101
11111111111111111111111110010000
00000000000000000000000000011111
11111111111111111111111111101101
00000000000000000000000000111110
11111111111111111111111111001000
00000000000000000000000000010010
00000000000000000000000000001100
00000000000000000000000000001000
11111111111111111111111111001101
11111111111111111111111111001111
00000000000000000000000011010101
00000000000000000000000001101001
00000000000000000000000001000010
00000000000000000000000100110011
00000000000000000000000001101111
11111111111111111111111110011111
11111111111111111111111110000100
00000000000000000000000101001001
11111111111111111111111111000111
00000000000000000000000000000000
11111111111111111111111111111101
11111111111111111111111110101110
11111111111111111111111101010100
11111111111111111111111011111110
11111111111111111111111111100010
11111111111111111111111111010101
00000000000000000000000000001111
00000000000000000000000001100110
00000000000000000000000001110010
00000000000000000000000011000001
00000000000000000000000000001010
00000000000000000000000010111111
11111111111111111111111110000110
00000000000000000000000000010011
11111111111111111111111111101000
11111111111111111111111110011000
11111111111111111111111111111110
00000000000000000000000100011001
11111111111111111111111111110111
11111111111111111111111111011110
00000000000000000000000000100000
00000000000000000000000000011101
11111111111111111111111111001110
00000000000000000000000010111000
00000000000000000000000000001011
00000000000000000000000010001010
00000000000000000000000010100101
00000000000000000000000000110010
00000000000000000000000001011101
00000000000000000000000010011110
11111111111111111111111110110011
00000000000000000000000011010000
00000000000000000000000000101111
00000000000000000000000000110110
00000000000000000000000001110010
00000000000000000000000000011010
00000000000000000000000000000111
00000000000000000000000000011111
11111111111111111111111110111101
00000000000000000000000000100100
11111111111111111111111110011001
00000000000000000000000000101000
00000000000000000000000000011100
11111111111111111111111110001111
00000000000000000000000001001011
00000000000000000000000100001111
00000000000000000000000001001010
00000000000000000000000000011010
11111111111111111111111111001001
00000000000000000000000000111011
00000000000000000000000001100000
11111111111111111111111101000100
00000000000000000000000000101011
00000000000000000000000010110110
11111111111111111111111100111011
00000000000000000000000001000001
00000000000000000000000000000000
00000000000000000000000000011110
00000000000000000000000010000110
00000000000000000000000110111101
11111111111111111111111011100110
11111111111111111111111101101010
00000000000000000000000101101000
11111111111111111111111011101110
11111111111111111111111111101100
