00000000000000000000000101100000
00000000000000000000010000100000
00000000000000000000000001100000
00000000000000000000000010111010
00000000000000000000000100111011
11111111111111111111111011111001
11111111111111111111111001110100
11111111111111111111111100111101
11111111111111111111111111001100
11111111111111111111111101101011
11111111111111111111111110010111
00000000000000000000000001011001
00000000000000000000000001011110
00000000000000000000000011111101
00000000000000000000000011011101
00000000000000000000000000011001
00000000000000000000001011000000
00000000000000000000001000101101
00000000000000000000000110011011
00000000000000000000000000011111
11111111111111111111111100001111
00000000000000000000000000110010
11111111111111111111110111100011
00000000000000000000001001011101
00000000000000000000000110100000
00000000000000000000000000111101
00000000000000000000000000000000
00000000000000000000000111111110
00000000000000000000000100001000
11111111111111111111110101011110
00000000000000000000000001100110
11111111111111111111111010010110
