00000000000000000000000000011111
11111111111111111111111111010111
00000000000000000000000000010100
00000000000000000000000000001100
11111111111111111111111111101110
11111111111111111111111111111111
11111111111111111111111110100100
00000000000000000000000000001000
11111111111111111111111111100101
11111111111111111111111111101011
11111111111111111111111111101011
11111111111111111111111111100110
00000000000000000000000000100100
00000000000000000000000000010101
11111111111111111111111111110000
00000000000000000000000000000101
00000000000000000000000000000010
11111111111111111111111111001100
00000000000000000000000000010000
11111111111111111111111111100000
11111111111111111111111111101110
11111111111111111111111111111101
00000000000000000000000000001011
11111111111111111111111111101001
00000000000000000000000000000011
11111111111111111111111111111001
11111111111111111111111111111101
00000000000000000000000000001100
00000000000000000000000000001010
11111111111111111111111111101000
11111111111111111111111111111110
00000000000000000000000000011101
00000000000000000000000000001000
00000000000000000000000000011110
00000000000000000000000000010000
00000000000000000000000000011101
11111111111111111111111111101100
11111111111111111111111111111001
11111111111111111111111111101000
11111111111111111111111111111010
00000000000000000000000000000000
00000000000000000000000000001000
11111111111111111111111111001100
11111111111111111111111111111111
11111111111111111111111111011011
00000000000000000000000000000011
11111111111111111111111111100110
00000000000000000000000000100001
11111111111111111111111111101000
00000000000000000000000000100001
11111111111111111111111111101101
00000000000000000000000000001110
11111111111111111111111111101110
11111111111111111111111111101101
00000000000000000000000000011100
11111111111111111111111111101110
00000000000000000000000000001101
11111111111111111111111111111101
00000000000000000000000000101101
11111111111111111111111111101101
11111111111111111111111111100110
00000000000000000000000000100000
00000000000000000000000000001010
00000000000000000000000000000110
00000000000000000000000000001010
11111111111111111111111111101110
00000000000000000000000000000011
00000000000000000000000000001110
11111111111111111111111111111111
00000000000000000000000000100011
11111111111111111111111111011100
00000000000000000000000000010010
00000000000000000000000000000001
11111111111111111111111111111100
11111111111111111111111111110101
00000000000000000000000000000111
00000000000000000000000000010000
00000000000000000000000000000111
00000000000000000000000000000011
00000000000000000000000000101011
00000000000000000000000000000100
11111111111111111111111111101001
11111111111111111111111111100101
11111111111111111111111111101010
11111111111111111111111111110010
00000000000000000000000000010101
00000000000000000000000000101100
11111111111111111111111111010001
00000000000000000000000000010100
00000000000000000000000000011000
00000000000000000000000000100111
00000000000000000000000001001101
11111111111111111111111111110101
00000000000000000000000000011110
00000000000000000000000000010000
11111111111111111111111111111000
00000000000000000000000000000000
00000000000000000000000000110011
00000000000000000000000000000011
00000000000000000000000000100010
00000000000000000000000000000111
00000000000000000000000000010010
11111111111111111111111111101111
00000000000000000000000000001111
11111111111111111111111111001101
00000000000000000000000000011010
00000000000000000000000000111111
00000000000000000000000001001110
11111111111111111111111111101000
11111111111111111111111111001111
11111111111111111111111111110001
00000000000000000000000000000010
00000000000000000000000000011010
11111111111111111111111111111100
11111111111111111111111111011000
11111111111111111111111111110100
11111111111111111111111111100001
11111111111111111111111111101000
00000000000000000000000000011011
00000000000000000000000000001000
00000000000000000000000000001000
00000000000000000000000000000111
00000000000000000000000001000110
00000000000000000000000000111000
00000000000000000000000000101110
00000000000000000000000001000010
00000000000000000000000010011010
00000000000000000000000000111010
00000000000000000000000000101001
11111111111111111111111110111000
00000000000000000000000000010001
11111111111111111111111111111110
00000000000000000000000000100011
11111111111111111111111111101110
00000000000000000000000000101101
11111111111111111111111111101110
11111111111111111111111111010011
11111111111111111111111111110100
11111111111111111111111110111110
00000000000000000000000000000110
11111111111111111111111111110000
00000000000000000000000000010000
11111111111111111111111111111010
00000000000000000000000000000100
11111111111111111111111111101101
00000000000000000000000000000100
00000000000000000000000000010101
00000000000000000000000000000110
11111111111111111111111111111100
11111111111111111111111111111110
11111111111111111111111111111100
11111111111111111111111111111011
11111111111111111111111111110110
11111111111111111111111111100111
00000000000000000000000000001010
00000000000000000000000000100000
11111111111111111111111111100110
11111111111111111111111111101011
11111111111111111111111111100100
00000000000000000000000000000000
11111111111111111111111111110101
00000000000000000000000011101010
11111111111111111111111111100001
00000000000000000000000000011101
11111111111111111111111111111111
11111111111111111111111111110110
11111111111111111111111111101010
11111111111111111111111111111001
11111111111111111111111111110001
11111111111111111111111111110010
11111111111111111111111111110001
00000000000000000000000000000111
00000000000000000000000000000000
00000000000000000000000000111011
11111111111111111111111111001000
11111111111111111111111111111001
11111111111111111111111111110000
00000000000000000000000000011101
11111111111111111111111111100111
00000000000000000000000000010001
11111111111111111111111111101011
11111111111111111111111111100011
00000000000000000000000000110001
00000000000000000000000001001010
11111111111111111111111111011001
00000000000000000000000000001111
11111111111111111111111111110110
11111111111111111111111111000100
00000000000000000000000000010010
11111111111111111111111111111000
00000000000000000000000000001010
11111111111111111111111111101011
11111111111111111111111111010001
00000000000000000000000000001001
00000000000000000000000000001111
00000000000000000000000001001011
11111111111111111111111111111001
00000000000000000000000000000101
00000000000000000000000000110110
00000000000000000000000011001110
00000000000000000000000001001101
00000000000000000000000000010010
11111111111111111111111111011111
00000000000000000000000001000001
00000000000000000000000000111001
11111111111111111111111111010011
00000000000000000000000000011110
00000000000000000000000000010000
11111111111111111111111111100110
11111111111111111111111111101001
00000000000000000000000000011000
00000000000000000000000000000000
00000000000000000000000000011011
00000000000000000000000000010111
11111111111111111111111111110000
00000000000000000000000000011110
11111111111111111111111111111011
11111111111111111111111111110001
00000000000000000000000000001110
11111111111111111111111111011000
00000000000000000000000001011101
11111111111111111111111111101001
00000000000000000000000101000100
00000000000000000000000001000100
11111111111111111111111111101110
00000000000000000000000000010100
11111111111111111111111111111101
11111111111111111111111111111001
11111111111111111111111111110101
00000000000000000000000000000111
00000000000000000000000001001001
00000000000000000000000000001010
00000000000000000000000000010111
00000000000000000000000000010001
11111111111111111111111111111000
11111111111111111111111111010001
00000000000000000000000000001101
00000000000000000000000000110111
00000000000000000000000000100001
00000000000000000000000001111000
11111111111111111111111111100100
11111111111111111111111111111000
00000000000000000000000000011000
11111111111111111111111111100100
11111111111111111111111111111101
11111111111111111111111111111000
00000000000000000000000000011010
00000000000000000000000000101101
00000000000000000000000000000111
11111111111111111111111111011110
00000000000000000000000000101111
00000000000000000000000000110001
11111111111111111111111111010010
11111111111111111111111111111001
00000000000000000000000000100101
00000000000000000000000000100110
