11111111111111111111111111000011
00000000000000000000000000010101
11111111111111111111111111000100
00000000000000000000000100001010
00000000000000000000000010000111
11111111111111111111111110000110
00000000000000000000000001011001
00000000000000000000000000100110
11111111111111111111111111000011
11111111111111111111111111110000
11111111111111111111111111110101
00000000000000000000000000011111
11111111111111111111111111001000
11111111111111111111111111010110
00000000000000000000000010011000
11111111111111111111111111111011
00000000000000000000000100010111
11111111111111111111111111101000
00000000000000000000000000001100
00000000000000000000000000000101
00000000000000000000000011110011
00000000000000000000000000010000
11111111111111111111111111010100
00000000000000000000000000000110
11111111111111111111111111100011
11111111111111111111111111010101
11111111111111111111111111001011
00000000000000000000000010010100
11111111111111111111111111100010
00000000000000000000000010101011
11111111111111111111111111001011
11111111111111111111111111111101
11111111111111111111111111010000
11111111111111111111111110100100
11111111111111111111111111100101
00000000000000000000000001011100
11111111111111111111111111100001
00000000000000000000000000111010
00000000000000000000000001001101
11111111111111111111111111101111
00000000000000000000000000011110
11111111111111111111111111011111
11111111111111111111111111101111
00000000000000000000000001010010
11111111111111111111111111111100
11111111111111111111111110111001
00000000000000000000000000001010
00000000000000000000000000000001
11111111111111111111111111110111
11111111111111111111111111000110
11111111111111111111111111100111
00000000000000000000000000000010
00000000000000000000000000011101
11111111111111111111111111010000
00000000000000000000000000010101
00000000000000000000000000000101
11111111111111111111111110111100
00000000000000000000000000000010
00000000000000000000000000000010
11111111111111111111111111100010
11111111111111111111111111100011
11111111111111111111111110110010
11111111111111111111111111110101
00000000000000000000000011110001
11111111111111111111111111100101
00000000000000000000000000101011
00000000000000000000000001100010
00000000000000000000000000010100
11111111111111111111111110101110
00000000000000000000000000111100
11111111111111111111111110011100
00000000000000000000000000000111
11111111111111111111111111001100
11111111111111111111111111010101
11111111111111111111111111010000
00000000000000000000000010000101
11111111111111111111111111011001
11111111111111111111111111010101
00000000000000000000000000011101
11111111111111111111111110011111
11111111111111111111111110111110
00000000000000000000000000000101
11111111111111111111111111100001
11111111111111111111111110110000
11111111111111111111111111111001
11111111111111111111111101111001
00000000000000000000000000000011
00000000000000000000000100000010
11111111111111111111111111101001
11111111111111111111111111011101
00000000000000000000000001100100
11111111111111111111111111000100
00000000000000000000000001100001
11111111111111111111111110000110
11111111111111111111111111000111
00000000000000000000000001110001
11111111111111111111111111111100
00000000000000000000000000110001
00000000000000000000000000010101
11111111111111111111111111110111
00000000000000000000000000000111
00000000000000000000000000011000
00000000000000000000000000000001
11111111111111111111111111000011
11111111111111111111111111011111
00000000000000000000000010101011
00000000000000000000000000110100
11111111111111111111111111000111
11111111111111111111111111101100
11111111111111111111111111110110
00000000000000000000000000101111
00000000000000000000000001011100
00000000000000000000000001011111
11111111111111111111111111101111
00000000000000000000000001011101
11111111111111111111111111110011
00000000000000000000000010000011
11111111111111111111111111000110
00000000000000000000000001000001
00000000000000000000000000011001
00000000000000000000000000000001
11111111111111111111111111001010
00000000000000000000000001100001
00000000000000000000000001000110
00000000000000000000000000100101
00000000000000000000000000010100
00000000000000000000000001000001
11111111111111111111111111101001
