11111111111111111111111010111111
00000000000000000000000100100010
00000000000000000000001011001010
00000000000000000000010010010001
00000000000000000000000010011010
11111111111111111111111101111110
00000000000000000000001000011101
00000000000000000000000100101000
00000000000000000000000000111100
00000000000000000000000101111101
11111111111111111111110101111110
00000000000000000000000000111010
00000000000000000000001101011110
00000000000000000000000110101110
00000000000000000000000001000100
00000000000000000000001000000011
11111111111111111111111111110010
00000000000000000000000000011111
11111111111111111111111111101111
00000000000000000000000000001000
00000000000000000000000011110011
00000000000000000000000101110000
00000000000000000000000010000010
00000000000000000000000010000000
00000000000000000000010000111000
00000000000000000000000011000000
00000000000000000000000011011010
00000000000000000000000010011100
00000000000000000000000110000110
00000000000000000000000010011001
00000000000000000000001010000110
00000000000000000000000001100010
00000000000000000000000000000000
00000000000000000000000011100000
11111111111111111111111111011000
11111111111111111111111110101100
11111111111111111111111110101100
00000000000000000000001110011101
00000000000000000000000110111000
00000000000000000000000011001101
00000000000000000000000100001001
00000000000000000000000000111010
11111111111111111111111110001011
11111111111111111111111110011000
11111111111111111111111111010111
00000000000000000000000011000100
11111111111111111111111101011111
00000000000000000000000011100010
00000000000000000000000100110010
00000000000000000000000100010011
00000000000000000000000101111110
00000000000000000000000010000101
11111111111111111111111101111000
00000000000000000000000110100000
00000000000000000000000111000000
11111111111111111111111111001001
00000000000000000000001011000101
11111111111111111111111101111100
11111111111111111111111101101010
11111111111111111111111111000110
00000000000000000000001001100000
00000000000000000000001001001100
11111111111111111111111101001001
00000000000000000000000000000000
