00000000000000000000010000110111
11111111111111111111111110111110
00000000000000000000000100110111
00000000000000000000001001010001
00000000000000000000000010100111
00000000000000000000000010100010
00000000000000000000000001111010
11111111111111111111101001100011
00000000000000000000001010110110
00000000000000000000001010010101
00000000000000000000000100011111
00000000000000000000001000000110
00000000000000000000001010100001
00000000000000000000000101011100
00000000000000000000001011000000
00000000000000000000000110100000
