11111111111111111111111111101110
00000000000000000000000010101100
00000000000000000000000001000101
11111111111111111111111110110000
00000000000000000000000001000010
00000000000000000000000000001111
00000000000000000000000000100110
00000000000000000000000000000111
11111111111111111111111111100011
11111111111111111111111111101001
00000000000000000000000000001101
00000000000000000000000000010101
00000000000000000000000000111010
11111111111111111111111111101110
00000000000000000000000000001110
00000000000000000000000010110011
00000000000000000000000000010111
00000000000000000000000101101000
11111111111111111111111111100111
11111111111111111111111111110100
00000000000000000000000000010111
00000000000000000000000000001101
00000000000000000000000000000011
00000000000000000000000010100110
00000000000000000000000010101010
00000000000000000000000000010000
11111111111111111111111111100111
00000000000000000000000010100011
00000000000000000000000001010001
11111111111111111111111111100010
11111111111111111111111111111111
00000000000000000000000000110000
00000000000000000000000000010111
00000000000000000000000000000110
00000000000000000000010101000000
00000000000000000000000010110010
00000000000000000000000001000001
00000000000000000000000000010000
11111111111111111111111111110111
00000000000000000000000000001111
00000000000000000000000001010101
11111111111111111111111111001111
11111111111111111111111111000101
00000000000000000000000000010110
00000000000000000000000001110100
11111111111111111111111110101100
00000000000000000000000000010001
11111111111111111111111111111010
11111111111111111111111101100110
11111111111111111111111111110011
00000000000000000000000000011100
11111111111111111111111111100011
00000000000000000000000000001011
11111111111111111111111111111000
00000000000000000000000001001001
11111111111111111111111111010011
11111111111111111111111101101101
11111111111111111111111111101010
00000000000000000000000000101110
00000000000000000000000000011100
11111111111111111111111111000111
11111111111111111111111101101101
00000000000000000000000000011010
00000000000000000000000010111101
