0010000000001011
1111111111111111
0000000000000000
0000001001111000
0000001110001100
1111111001011111
0000010111100001
0000000000000000
0000000000000000
1111011010110000
1110110110100011
1110110001010101
1111110001110101
0000101110011101
0000000000000000
0000000000000000
0000000000000000
0011011100000101
0000000000000000
1111011001011011
1111111111111111
0000000000000000
0000001011010101
0000000000000000
1111001111000001
0000000000000000
1110011001011010
0000001001011011
1101001011011000
0000000000000000
0000000000000000
1101101110010000
0000000000000000
1111111111111111
0000000000000000
1111100101000111
1110100010010011
1111111111111111
0000010011000101
0000000000000000
1110011110100010
0000000000000000
0000000000000000
1111010111011101
0000000000000000
0000000000000000
0000000000000000
1111111111111111
0000001101100010
0000011001011000
1111111111111111
0000000000000000
1111111111111111
0000101000001101
0000000000000000
0000001010001100
1111111111111111
1101001100011101
1111111111111111
0000000000000000
1101011101000111
1111111110001100
0000000000000000
0010110111101110
0000000000000000
1111111010001110
0000101101000100
0000011010101010
0000101001100110
0000000100010010
0001000000100100
1111110110011001
1111110111000110
1111111111111111
1111010000101111
0000000000100111
1111110100100001
1111110110001101
1111001111010100
0001010111100000
1111110101110110
1111010000111101
0000001110111101
1111111111111111
1110011100110001
1111010001010101
1111010000010111
0000101110110000
1111011010010011
1111011101010111
0000101011111101
1111001011011111
1111110000110111
1111100101111011
0000000000000000
1111111111111111
0000000001110111
1111101101000100
1111111110001000
0000000000000000
0000000000000000
1111100001011011
0000010011100010
0000000000000000
1111111101110100
0000111001011101
0000000001100111
1111110001111001
1110110100001100
0000010001011100
1111010011000101
0000000000000000
0000000000000000
1111010111010000
1111001101010010
1111110010101111
1111100100110000
0000000000000000
0000110000001010
1111111111111111
1111111111111111
1111101000001011
1111010001110011
0000001010101101
0001000101001111
1111010100100101
0000001110111110
1111111111111111
1110001101101000
1111111111111111
0000000000000000
1111000111100110
1111110111100101
1111011000110100
1111011111110100
1111111111111111
0000000000000000
0000000011000111
0001100110001010
1111110010101100
0000001010011100
0000010010011110
0000000000000000
0000000000000000
0000000000000000
0000001000111101
0000000000000000
0000011100100011
0000000000000000
0000000000000000
1111111001111010
0000000000000000
0001101001111010
0000000000000000
0000011111111110
1111000100111001
0000100110111100
1111111111111111
0000000000000000
1111011111001000
0000000000000000
0000000000000000
0000000000000000
0001010001001001
1111110011101111
0000000000000000
1110111101010110
0000000000000000
1111010110010001
0000000000000000
1111111111111111
0000000001111010
1111111111111111
1111111111111111
1111111111111111
0000000000000000
0001010101110010
0000100000111001
1111111111111111
0000000000000000
0000000000000000
1111101010111101
0000000000000000
0000001011110101
0000000000000000
1111011000111101
0000000000000000
0000000000000000
0001011010110100
1111110110110101
1111111111111111
0010010110000110
1111111111111111
1111101110010011
0001101010100000
0000001011110011
0000010101001110
0000100100110001
1111101010010011
1111010001000110
1111110011101110
1111111111111111
0000000011100100
0000000111111100
0000000101010101
1111000011001110
1111000101110010
0000010001011010
1111011010100111
1111101010011010
0000110110000000
1111111111111111
1110010000110000
0000111110000101
0000010010000111
0000010110001011
1111110000011101
1111101001000000
0000000110010011
1111111010001110
1111011001101011
0000010000111001
0000000000000000
0000000000000000
0000000100010101
1111111100101100
1111100110010000
0000000000000000
1111111111111111
1111110111110101
0000000101101010
0000000000000000
0000001001101011
1111101100011111
0000111001101001
0000000100000010
0001001010011110
0000000010110000
1111100010001011
0000000000000000
1111111111111111
1111100010110000
0001101000000111
0001000100001100
1111010111011110
1111111111111111
1111001111001111
0000000000000000
0000000000000000
1111010111010110
1111000010101011
1111000001110111
0001011001110001
0001011110110111
0000000111011110
1111111111111111
0010001010000100
0000000000000000
0000000000000000
0010100010011001
0000001000001111
0001001011100000
0001001000101010
1111111111111111
0000000000000000
1111011010011101
1111011100000010
0000001100101010
1111110100111001
1111101100100101
0000000000000000
0000000000000000
0000000000000000
1111110011000101
0000000000000000
1111011100001011
1111111111111111
0000000000000000
0000011000011110
0000000000000000
1111001010001101
0000000000000000
1111011110001111
0001010110001110
1111110101111000
0000000000000000
1111111111111111
0000010011101001
0000000000000000
1111111111111111
0000000000000000
1111011111110100
1111111000010110
0000000000000000
0001010110100011
1111111111111111
0000110011011110
0000000000000000
1111111111111111
0001111000010010
1111111111111111
1111111111111111
1111111111111111
1111111111111111
1111110101011000
1111100110110011
0000000000000000
0000000000000000
1111111111111111
0000010111000000
1111111111111111
0000000011011011
1111111111111111
0000010100110011
1111111111111111
0000000000000000
1111000101001110
1111111011101011
0000000000000000
1101100001000100
0000000000000000
1111110101100101
0000001001100111
0000110100101110
0000001001011000
1111100010100011
0000100011100010
0000110100010010
0000010010111100
0000000000000000
1111110101101101
1111101011100110
1111011000010000
0000101001101101
0000101010000100
1111111010001100
0000001111101110
0000000110010011
1111010101010010
1111111111111111
0001101000101000
1111100111110101
1111010011011100
0000101101111000
0000000010110011
1111110110001110
0000000011100010
1111110101110001
0000101000000101
1111011010110011
0000000000000000
1111111111111111
0000110100001001
1111001111101100
1111110100010001
1111111111111111
1111111111111111
1111110010000100
0000011111000101
1111111111111111
1111010000010010
0000001100110001
1111001101111011
0000000010100000
1111000100101101
0000001100011111
0000000110111111
0000000000000000
0000000000000000
0000001100100001
1110110101101010
1110111000111001
1111101110010100
0000000000000000
0000111100010101
1111111111111111
0000000000000000
0000010000011100
0000110111001111
0000110111010010
1111001010101001
1110010001000110
1111111101000000
0000000000000000
1101110010101001
1111111111111111
0000000000000000
0000001001011100
0000000011011110
0010100001101001
1111110111010001
0000000000000000
1111111111111111
0000100011010100
0000001001010111
0000110110011001
1111110110100001
0000000100111110
1111111111111111
1111111111111111
1111111111111111
0000101111010000
0000000000000000
0001100100101010
1111111111111111
1111111111111111
0000001011100001
1111111111111111
1101100011100100
1111111111111111
1111000101000101
0000010010110010
1110010100010110
0000000000000000
0000000000000000
0001100101100011
1111111111111111
1111111111111111
1111111111111111
0000010100110111
1111101011110111
0000000000000000
0011010110110110
0000000000000000
0010000100101101
1111111111111111
0000000000000000
0000001011001000
0000000000000000
0000000000000000
0000000000000000
1111111111111111
1110111000010101
1111111100111111
1111111111111111
0000000000000000
1111111111111111
1111101111100110
0000000000000000
1111010011100011
1111111111111111
0001000110011101
1111111111111111
1111111111111111
1110111000010010
1111111110111000
0000000000000000
0000111001100101
0000000000000000
1111111100101110
0000101101100101
0000011011001000
0000000010100110
0000001100001011
1111110000001010
1111100101110010
0000001011001011
1111111111111111
1111100010110010
1111110011001101
0000011011010001
0000010010100000
1111111001001011
0000100010000100
1111101101110110
1111100011110001
1111011001011100
1111111111111111
1101111110110100
1111000001110001
1111010011111001
0000010100110001
0000011001011101
1111101110001000
0000010101011000
1111111001100111
0000000001110011
1111011110000101
0000000000000000
0000000000000000
0000101000101110
1111101010111001
0000010000100110
1111111111111111
1111111111111111
1111010100001111
0000010001000110
1111111111111111
1111110110100000
1111110000011111
0000110011110010
1111010010001111
0001001100101001
1111111100011000
1111111111011010
0000000000000000
0000000000000000
0000110110000001
0000110100110100
0000011111101110
1111111111011100
0000000000000000
1111101111101010
0000000000000000
1111111111111111
0000001100010010
0000100101001111
1111010000000100
0000100010111110
0000010111110101
0000001110011011
1111111111111111
1110010001010100
1111111111111111
1111111111111111
0001001010001010
1111111001110100
0001100001000010
0000010000101100
0000000000000000
0000000000000000
1110110110011000
1111100111010010
1111101111010011
1101010001001010
0000101010101110
0000000000000000
0000000000000000
0000000000000000
1111011110010101
1111111111111111
0000000000010110
0000000000000000
0000000000000000
0000000101010101
0000000000000000
1110100111000001
0000000000000000
0000000111111001
0001110100011100
0001001010110110
1111111111111111
1111111111111111
1111100101101101
0000000000000000
0000000000000000
0000000000000000
0000000111111010
1110100111101110
0000000000000000
1110110101101010
1111111111111111
0000110010111000
0000000000000000
0000000000000000
0000010010110011
0000000000000000
0000000000000000
0000000000000000
0000000000000000
0010111101001011
0010101101011011
1111111111111111
1111111111111111
0000000000000000
0000001101111000
1111111111111111
0001101111010001
1111111111111111
1110111111101101
1111111111111111
0000000000000000
0000101110111110
1111110100111100
1111111111111111
0000011001100011
1111111111111111
0000011010001001
0000100100010101
0000100011100010
1111110111010110
1111100110111110
1111111100010101
0000101100001010
0000000011110000
0000000000000000
1111100111001011
0000001110001000
1111011010101011
1110111101000001
0000111100111001
0000000001001001
0000001100100111
0000010001001101
0000011010100001
0000000000000000
1111101000100100
0000001011011000
1110101100110110
0000011100101010
1111101111100001
1111101011011101
1111111001001010
1111110001101100
0001011010010101
0000000110101101
1111111111111111
1111111111111111
1111111010011011
1111111100111111
1111011000110001
0000000000000000
1111111111111111
1111110100110001
0000011001110100
0000000000000000
1111101001010110
1111011101110101
1111001110110101
0000010000000010
0001001111111001
0000000001010110
1111011110111111
1111111111111111
1111111111111111
1111110110011101
1110110100110111
1111010010101000
1111110101111011
0000000000000000
1111111011010101
0000000000000000
0000000000000000
0000001001001010
0000011110111010
0000101111000010
0001000100101101
1111010111000001
1111110100011101
1111111111111111
0000000000000111
1111111111111111
1111111111111111
0000001101100110
0000001000011000
1111111100101100
1110000000101000
0000000000000000
0000000000000000
1111111010100110
1111101111001000
1111111000010111
0000011000001010
1110101101101101
0000000000000000
0000000000000000
0000000000000000
1111110101111101
1111111111111111
0000000111101010
1111111111111111
0000000000000000
0000111001100011
0000000000000000
0000001010011000
0000000000000000
1111111111110011
0000001101111111
1111111001111110
1111111111111111
0000000000000000
1111111001001000
0000000000000000
1111111111111111
0000000000000000
1111111000111110
1111111011101100
1111111111111111
1111110110000101
0000000000000000
1111111000100011
0000000000000000
0000000000000000
1111111001111000
0000000000000000
0000000000000000
0000000000000000
1111111111111111
1111111110100000
1111111101100001
0000000000000000
1111111111111111
0000000000000000
0101000110110011
0000000000000000
1111111001000100
1111111111111111
1111101101001111
1111111111111111
0000000000000000
1111110110111101
1101000001111110
0000000000000000
0000111000101111
0000000000000000
1111111111001100
1111101110011001
1111101100000110
1111101111010100
1111110110000110
0000010010011110
0000000000100000
1101101110100001
1111111111111111
1111110000111011
1111111001110111
1111110111000001
1111101111000101
1111111000110011
1111111010110110
1111111100111101
0000000010001011
1111111011100001
1111111111111111
1111111110000001
0000010101100100
1111101111000111
0000000111110000
0000000011100010
0000000100101111
1111110101010011
1111111011101000
1111101110001011
1111111110101111
0000000000000000
0000000000000000
0000110000101110
0000001110001110
1111110110001000
1111111111111111
0000000000000000
0000000101101110
1111100110100100
1111111111111111
1111111011010110
1111100100011001
0000000101011000
1111111001001011
1111111101011001
0001010111111010
1111101010010111
0000000000000000
0000000000000000
1111111011001011
1111101111001110
1111110001111101
1111110110101110
0000000000000000
1111110111010101
1111111111111111
1111111111111111
1111110110011110
0000000101000001
1111110011111001
1111100101101100
1111110011100010
0000100011011011
1111111111111111
0001011000011001
0000000000000000
0000000000000000
1111101110101001
0000001001110101
1110100110111010
0000000101101001
1111111111111111
1111111111111111
0001101001110000
0000101110010101
0000100001101000
0011010001110001
1110111010111001
1111111111111111
1111111111111111
1111111111111111
0000010110111000
0000000000000000
1111111011000100
1111111111111111
1111111111111111
0000011001010000
1111111111111111
0001001000100010
1111111111111111
1111100100100110
1110000001011010
1111000000010011
0000000000000000
0000000000000000
0000011111010101
1111111111111111
1111111111111111
1111111111111111
0000000010110011
0010010101010101
1111111111111111
0001100000001000
0000000000000000
1111000100101000
1111111111111111
1111111111111111
0000001100101010
1111111111111111
1111111111111111
1111111111111111
1111111111111111
1110000010101101
1101110001001011
1111111111111111
0000000000000000
1111111111111111
1111101011101001
0000000000000000
1110101010011101
0000000000000000
0001100010000110
0000000000000000
1111111111111111
1111110110110100
0000010001110100
0000000000000000
1111010110010100
0000000000000000
1111101011001011
0000011111000011
0000011101000000
1111110110011011
1111111011101000
0000100101001101
1111001010100111
0000011100010001
0000000000000000
1111110011001010
1111101101111001
0000010010111000
0001001100001000
1111101100101001
0000011010010100
1111010100100101
1111001001100010
0000000000010010
1111111111111111
0000010110100100
0000010010000110
0000010000111001
0000010011000101
0000000010010111
1111101110000000
0000100110000111
1111111001110010
1111010101011010
1111000010111011
1111111111111111
0000000000000000
0000100110001000
1111011011011110
0000001011101011
1111111111111111
0000000000000000
0000000000111100
0000100001010101
1111111111111111
1111111110100111
0000010111001011
0000100110000111
1110110111110101
1110100001000000
0000011100011010
0000001001010100
0000000000000000
0000000000000000
0000010110011110
0001100011011000
0000011101011001
0000000110011010
1111111111111111
0000100111101100
0000000000000000
0000000000000000
1110110101010100
1111101000010000
1111100111110001
1111011011100001
0000110110011101
0000000011001001
0000000000000000
0000111100100001
1111111111111111
0000000000000000
1111110010011011
0000000111111011
0000011010010000
1111110101011111
0000000000000000
0000000000000000
0000100101011001
0000100000110001
1111000110100110
1111110000110010
1111111001010111
0000000000000000
0000000000000000
0000000000000000
0001000010001111
0000000000000000
1111010100010000
0000000000000000
0000000000000000
0000011001000111
0000000000000000
0000001010101100
0000000000000000
1111110100001101
0000001100100000
1111101000110101
0000000000000000
0000000000000000
1111111001011010
0000000000000000
0000000000000000
0000000000000000
0000000011001001
0000100001110100
0000000000000000
0000100011001001
0000000000000000
0000000010011110
0000000000000000
0000000000000000
0000000010110010
0000000000000000
0000000000000000
0000000000000000
1111111111111111
0000001100011001
0000111100110111
0000000000000000
0000000000000000
0000000000000000
0000001100011001
0000000000000000
0000111100011111
0000000000000000
1111111010100010
0000000000000000
0000000000000000
0000000101001001
0000000101001111
0000000000000000
0000001101100011
1111111111111111
0000010001011101
0000010011010110
1111010000000010
0000100110000100
1111101011000100
0010011000011001
1111111101110101
0000000111000010
1111111111111111
0000010000010010
0000011110010101
0000011110110111
1111110011010111
1111000000110001
0001010011110111
1111110110110000
0000001111100111
0000101111100100
0000000000000000
1110010101111011
1110001010100011
0000100000011010
0000111101111110
0000010011010100
0000111101011100
0000010111000101
0000001110000110
0000000100010000
0000000111011111
1111111111111111
1111111111111111
0000001101111100
0001010000010110
0000010100111010
1111111111111111
1111111111111111
0000111110111101
0000001110101000
1111111111111111
0000111111100000
0001001110001111
1111111011011111
0000010011110000
1101110010011000
0000001000001010
0000010010011001
1111111111111111
1111111111111111
0000001001011110
1111110000110111
0000000000101000
1111100011100111
1111111111111111
0000100001100001
1111111111111111
1111111111111111
0000100000110010
1111010100101110
0000000100010000
0000110000111100
1111011101001111
0000010000100011
1111111111111111
1111100110100010
1111111111111111
1111111111111111
0000001100101110
1111100111010111
0000000001000011
1101011001101101
0000000000000000
0000000000000000
0000001101011011
0000001000010001
0000011000011100
0001001010101110
0001110011100000
0000000000000000
0000000000000000
0000000000000000
1111001110110101
1111111111111111
0000111100100100
1111111111111111
0000000000000000
1101001101001011
0000000000000000
0000100100010100
0000000000000000
0000011011100101
0000011101010101
0000001010011001
1111111111111111
0000000000000000
1111111110000000
0000000000000000
1111111111111111
0000000000000000
0000010000111101
0000001111001010
1111111111111111
1111111101100000
0000000000000000
0000010110111001
0000000000000000
0000000000000000
1111111000000100
0000000000000000
0000000000000000
0000000000000000
0000000000000000
1111110110000000
1111110110110100
1111111111111111
1111111111111111
0000000000000000
0010111100001001
0000000000000000
1111101011001001
1111111111111111
0000001001101001
1111111111111111
0000000000000000
1111111011111100
1110010000100010
1111111111111111
0000101001010011
0000000000000000
0000001001101101
1111101111010000
0000011010110010
1110111010111100
1111110100011100
0000010010101011
1111101001001101
1101110101111011
1111111111111111
0000000111110001
1111110100011100
0000000101100000
0000000010111110
0000001011111100
1111100010111000
0000000001101111
0000001011111000
1111111011111101
1111111111111111
0000101001001001
0000001101011010
0000001000111110
1111111000000110
1111111110110101
0000011001001001
1111110001011101
0000000100000010
1111110000111100
1111110100111011
1111111111111111
1111111111111111
0000000001111000
0000111010001010
1111111111100011
1111111111111111
0000000000000000
0000001101001111
1110101110011101
1111111111111111
0000001010001000
1111100001001001
1111111010111111
0000000110000111
0000000011101100
1111001111001010
1111111010011011
1111111111111111
1111111111111111
0000000100000110
1111101010011100
1111110010000001
1111001101000110
0000000000000000
0000010001111001
1111111111111111
1111111111111111
0000001000000001
0000000110110001
1111110101001010
1111011011000001
1111111010001100
1111100110111100
1111111111111111
0010001110011101
1111111111111111
0000000000000000
0000010100001100
1111111011101100
1110001110001100
0000100100010011
1111111111111111
0000000000000000
1111101010100100
1111101111100100
1111011100111100
1111111000110010
1111111101010000
0000000000000000
0000000000000000
0000000000000000
1111101000100010
0000000000000000
1110101101001101
1111111111111111
0000000000000000
0000010001001011
0000000000000000
0011101111011010
0000000000000000
0000101001000101
1111011100010010
0010000110110001
0000000000000000
1111111111111111
1110101001011111
0000000000000000
0000000000000000
0000000000000000
1111111110000101
1111110110000111
1111111111111111
1110001001100001
1111111111111111
1110000110100100
0000000000000000
1111111111111111
1111111011110001
1111111111111111
1111111111111111
1111111111111111
0000000000000000
0001111010111111
0000000001011010
1111111111111111
0000000000000000
1111111111111111
0000000000100010
1111111111111111
0000100100110110
1111111111111111
1110110010001101
1111111111111111
0000000000000000
0001110000100111
0000000011001010
1111111111111111
1111001101111001
0000000000000000
1111111111100010
1111111011111110
0000100101000101
0000000111011101
1111110101110111
0000011110111001
0000011111101111
0000001100110100
0000000000000000
1111111110010111
0000010011010111
1111010111010001
1111011011001001
0000001111001101
0000011111110010
0000001000001010
0000001011001100
0000101010011100
0000000000000000
0001100100001111
0000111001100101
0000000001000110
0000011011001011
1111011000100111
1111100101001110
0000000010100000
1111100111110110
1111111001001101
1111111101101111
0000000000000000
1111111111111111
0000011000010000
1110111110010111
1111100101111000
1111111111111111
1111111111111111
0000000000111000
0000100001000010
1111111111111111
1111110010011011
0000011110101001
1111100010101001
0000010110100110
1110100011000000
1111111000010101
1111100011111100
0000000000000000
1111111111111111
1111010011110011
1111001011001011
1111100001000000
1111100000100001
1111111111111111
0000011011001111
0000000000000000
0000000000000000
1111010111111100
1111100010101011
0000100100011100
1111110001101101
1111001110101000
0000000101001101
1111111111111111
0000110101110010
0000000000000000
1111111111111111
0000010111001100
1111100110010010
1111111100111110
1111001100110101
0000000000000000
0000000000000000
0000000011001110
1111100110101001
1111101111110000
0001010000110010
0101111011100100
0000000000000000
0000000000000000
0000000000000000
0000001010000011
1111111111111111
0000010010010001
1111111111111111
0000000000000000
1101110101001000
0000000000000000
0000000111100011
0000000000000000
1111111100100001
0000010110100100
1111101111011010
1111111111111111
0000000000000000
1111101100010011
0000000000000000
1111111111111111
0000000000000000
1111111100100001
1111110100101101
1111111111111111
0000001100111001
0000000000000000
1111111100001011
0000000000000000
0000000000000000
0000000101100101
0000000000000000
0000000000000000
0000000000000000
1111111111111111
1111111100101001
1111111101100111
1111111111111111
1111111111111111
0000000000000000
1101111110101111
0000000000000000
1111111001110000
1111111111111111
1111110010010010
1111111111111111
0000000000000000
1111101111000111
0011001000011011
0000000000000000
1111110111100001
0000000000000000
1111111101110001
1111111011101000
1111101101000011
1110100011000010
0000100000011010
0000011100010001
1111110111010001
0001000110110100
1111111111111111
1111110001111001
1111110100110001
1111110101111101
1111101111001110
0000001001110100
1111110010001100
0000001010110110
1111111110110010
0000000110111000
1111111111111111
0000000011100000
0000000101010000
1111110100011011
0000100100100111
1111111111011100
0000000100110110
0000000011000101
1111111001101011
1111101101111000
1111110110111010
1111111111111111
0000000000000000
0000100100000001
0000011001011111
1111110100100111
1111111111111111
0000000000000000
0000010101101100
1111011011110101
1111111111111111
1111111010110011
1111110010101010
1111111001100001
1111111010010011
0000000110010011
1100001100000001
1111110101110110
0000000000000000
0000000000000000
1111111111000010
1111110000111111
1111110001110101
0000001000010001
0000000000000000
1111101100100101
0000000000000000
0000000000000000
1111111010001010
1111111111100010
0000000011001111
1111110101001110
1111101100001010
1110000010110001
1111111111111111
1111010001111001
0000000000000000
0000000000000000
0001010100100010
1111110110100010
1111011100101100
0000010110110101
1111111111111111
1111111111111111
0010011101001111
1111011111011100
1111111110001100
1111111000110010
1111111101100000
1111111111111111
1111111111111111
1111111111111111
0010010111111110
0000000000000000
0000110100010001
1111111111111111
1111111111111111
0000010110100111
1111111111111111
1111101011001101
1111111111111111
1110101001001001
1111001011100110
1110010010001011
0000000000000000
0000000000000000
1111010001101001
1111111111111111
0000000000000000
1111111111111111
0000110100010001
1110101001100000
0000000000000000
0000110110110010
0000000000000000
0000001100011111
1111111111111111
1111111111111111
0000000100111000
1111111111111111
1111111111111111
1111111111111111
1111111111111111
1111100101001011
0001110101001000
0000000000000000
0000000000000000
0000000000000000
0000001000010010
0000000000000000
1110101100110000
0000000000000000
0000100100010110
1111111111111111
1111111111111111
0011101111001001
1111111100100100
1111111111111111
1111001101111001
0000000000000000
0000000111001111
0000000011000011
0001000010101101
1111111101001110
1111111010111000
1111110010011111
0000010111100000
0000001011101110
1111111111111111
1111010001100010
0000000111010110
1111110110101111
0000001101100001
0001101110010110
0000000110010101
1111000010010011
1111100110000110
1111101001111011
1111111111111111
1111011111111000
0000011011111101
1111000100001100
0000101000011100
0000010101010011
1111010110011001
1111110100101100
1111010111101101
1111111011110000
1111010001011000
0000000000000000
0000000000000000
0001000011000010
1111010100010111
0000000111111001
1111111111111111
0000000000000000
1110110101001011
0000100101100011
1111111111111111
1111110000000100
1111100100110000
0000110010110001
1111101000100011
1111110011111000
0000000000000000
1111110010000100
0000000000000000
0000000000000000
0000100101001001
1111011001111010
0000010001100111
1111101010110110
0000000000000000
0000001110011000
0000000000000000
0000000000000000
1111111101101100
1111111010000111
1111010011000010
1111000100111100
1111111100011110
0000001101010011
1111111111111111
1111001101001010
1111111111111111
0000000000000000
1111100001101000
1111111101000100
1111100010111101
0000110111010110
0000000000000000
1111111111111111
0000001100111111
0001001001111011
0000011111101010
0000101000100100
1111100111010010
1111111111111111
1111111111111111
1111111111111111
1111111110100011
0000000000000000
0000110001111001
1111111111111111
1111111111111111
0000110101111111
1111111111111111
0000101100100000
1111111111111111
0000001100110111
1111111001011010
1111111110111000
0000000000000000
0000000000000000
1111101010010111
1111111111111111
1111111111111111
1111111111111111
0000100011110101
1111111011000010
1111111111111111
1111111011010011
0000000000000000
0000010010011000
1111111111111111
0000000000000000
1111111001001000
0000000000000000
0000000000000000
0000000000000000
1111111111111111
1111101100101100
1111101011010011
1111111111111111
0000000000000000
0000000000000000
1111000000011010
0000000000000000
1111010010100011
1111111111111111
0000000101100001
1111111111111111
1111111111111111
1111110111111010
1111111110110111
1111111111111111
0010011000000001
1111111111111111
1111110001001000
1111111110100010
0000011110101101
0000011011001001
1110101100101111
0001001110110001
1111011010111100
0000000101001010
0000000000000000
0000000001011110
1111001110001101
0000000101111001
1111111011010000
1111101000001010
0000001000011100
1111001101010110
1111001011101100
0000001111001101
0000000000000000
1111111101110000
1111110011010000
1111111011001000
0000111000000011
1111010101010100
0000010101110000
0000010100101100
0000000000000011
1111011001101101
1111111111111001
1111111111111111
1111111111111111
0000110010001010
0000111011000000
1111111111010111
0000000000000000
0000000000000000
1111110001001101
0001100101011000
1111111111111111
1111111010000101
0000000110111100
0000110000110000
1111100001000001
0000000111111010
1111110110110111
1111101101011100
1111111111111111
1111111111111111
1111100011110000
1111110100110100
0000001110000111
1111001110110001
1111111111111111
0000101100110110
0000000000000000
1111111111111111
1111110000000010
1111000001100000
1111111000101010
0000000001000000
0000101010010101
1111111110111110
1111111111111111
0001001000110101
1111111111111111
0000000000000000
1110111011001010
0000010011101011
0001000010100101
0000010101001001
0000000000000000
1111111111111111
1110101100010010
0000000101010110
1111111000100010
0000011000010101
0000000110100001
1111111111111111
1111111111111111
1111111111111111
1110110000011110
0000000000000000
1110111100111010
1111111111111111
1111111111111111
0000001111100101
1111111111111111
1110100100110111
1111111111111111
0010001110100010
0000111100100011
0010000010101010
0000000000000000
1111111111111111
0000010010110000
1111111111111111
1111111111111111
1111111111111111
1111000100010101
0001111001100101
1111111111111111
0001000001010110
1111111111111111
0000010101110100
1111111111111111
0000000000000000
1111110011111101
0000000000000000
0000000000000000
0000000000000000
0000000000000000
1111100011111110
1110011111000101
1111111111111111
0000000000000000
1111111111111111
1111110110110000
1111111111111111
0011000101000101
1111111111111111
1111100100001100
1111111111111111
0000000000000000
1101110100101110
0000000100110100
0000000000000000
0001100110110001
0000000000000000
1110111100101001
0000110011111100
0000101111000010
0000001011111100
1111011111011011
0000101011000100
1111110100100101
0000001010011010
1111111111111111
0000011001010111
1110101101111110
1111110000110010
0001100100110100
1111100101101011
1111010000111010
0000100000101111
0000011110001100
0000111011001010
1111111111111111
0000010110000111
1111000011101000
0000010111001010
0000011100110101
0000011110101111
0000001000001011
0000110010101011
0000001101000011
0000111011101111
0000011001011100
0000000000000000
0000000000000000
0000010100010001
1111101010000010
0000001100100001
1111111111111111
0000000000000000
1110110001011000
0000010000010100
0000000000000000
1111010110000010
0000101011001101
0001101000100010
0000000111010011
0000000101011100
1111111000010110
1111111010101101
0000000000000000
0000000000000000
0000001010000000
1111110100111001
1111110101100010
1111110011011010
0000000000000000
1111101100000111
0000000000000000
0000000000000000
0000010001111001
1110100000111001
1110001100001000
0000000110000011
0000011001011111
0000001000001111
0000000000000000
1111011110010101
1111111111111111
0000000000000000
0001010001001111
0000001010010011
0000001101001100
0000010000010001
1111111111111111
0000000000000000
1110100110010000
1111101110111111
1111011111110111
0000001011111111
0000011010101101
0000000000000000
0000000000000000
0000000000000000
0010000100000010
0000000000000000
0000101101111100
1111111111111111
0000000000000000
0000000101110000
0000000000000000
0000111100101011
0000000000000000
1111010111010101
1110011001111011
0000000101100011
0000000000000000
1111111111111111
0011110001110001
0000000000000000
1111111111111111
0000000000000000
0000011001010011
0001100000111101
1111111111111111
1111000010001011
1111111111111111
1110001010100000
0000000000000000
1111111111111111
1111110100010101
1111111111111111
1111111111111111
1111111111111111
1111111111111111
0000110011011101
1110101101011010
1111111111111111
0000000000000000
1111111111111111
0000001011011110
1111111111111111
0010101011101101
1111111111111111
1110011101111110
1111111111111111
0000000000000000
1111110110100100
0000001011001011
0000000000000000
0000000011111010
0000000000000000
0000000011100001
1111111011001011
0001000011000010
0000000010101101
0000000101100110
1111101010100101
0000011011001100
0000000010100011
1111111111111111
1111001001001101
0000001100101101
0000010010010100
1111111110000001
0000000011111100
0000011011001001
0000100100110110
0000001100011000
0000110010000000
1111111111111111
1111011110000011
0001101000000101
1111101111101010
0000011001100110
0000100000101101
1111011011111101
0000011110010101
1111010011001101
1111100000010011
1111100101011101
0000000000000000
0000000000000000
0000100000001000
1110111001110110
0000011001010101
1111111111111111
0000000000000000
1111100100100010
0000010001111100
0000000000000000
0000001111010110
1111100000001001
1111100011101010
0000000110110001
1111001101101101
1111110001011000
1111000111010111
0000000000000000
0000000000000000
1111001011100101
0000000001000111
1111001010001110
1111101000000100
0000000000000000
0000001110000110
0000000000000000
0000000000000000
1110101110100011
0001110001000101
0000000010011101
0000010111100001
1111100011001011
0000001101100010
1111111111111111
0010000100111010
0000000000000000
1111111111111111
1110110000101011
1111110110110010
1110011000100010
0000011101110011
0000000000000000
0000000000000000
0010000011101101
1111110110101010
1110111001011011
1111110001010011
0000000110010011
0000000000000000
0000000000000000
0000000000000000
1110111001100001
1111111111111111
1110100001010110
1111111111111111
0000000000000000
0000010100110000
0000000000000000
0000101010001000
0000000000000000
0000100001111111
0001011011111111
0000000011000100
1111111111111111
0000000000000000
1101111101101100
0000000000000000
0000000000000000
0000000000000000
1111011001110000
1110101101110100
0000000000000000
1111110011001110
0000000000000000
0001011101100010
0000000000000000
0000000000000000
1111110000100110
0000000000000000
0000000000000000
0000000000000000
1111111111111111
0000010011010100
0010010000000110
1111111111111111
1111111111111111
1111111111111111
1111111100001110
0000000000000000
1110110001100110
1111111111111111
0011001100011001
1111111111111111
1111111111111111
0000001100100100
1111111000100110
1111111111111111
0001000110110011
0000000000000000
1111000011111110
0000000100101010
0000110101000001
0000100011010000
0000001110110000
1111111011001100
1111011011011000
0000000011100000
1111111111111111
0000010101000100
0000001001101111
1111011110000101
1110110111111000
1110101011101001
1111110010111111
0000000111101101
1111011011110111
0000010110110010
1111111111111111
0000000110001100
1110111001111010
0000100011111110
0000100101011100
1111001000011000
1110100111000110
1110111100101011
0000000101101001
1111010110011111
0000001000111000
0000000000000000
0000000000000000
0001000011011101
1110111110101101
1110111001001101
1111111111111111
0000000000000000
1111110001001101
0000011010001011
0000000000000000
1111010010111011
0000100001101000
1111011000101101
0000000000101000
0000110110001001
0000001010101010
0000010001110110
0000000000000000
0000000000000000
0001000100100111
0001001111110111
0000000001111100
1111011001100101
0000000000000000
0000010000100011
0000000000000000
0000000000000000
0000011101001001
0000001001011000
0000101100010000
0000110011011101
1111000010001010
0000001011010110
1111111111111111
