11111111111111111111111111110101
00000000000000000000000000011111
00000000000000000000000010010111
00000000000000000000000000010011
00000000000000000000000001000001
11111111111111111111111111110010
11111111111111111111111111100101
11111111111111111111111111000011
11111111111111111111111111100011
00000000000000000000000000011001
11111111111111111111111111101100
00000000000000000000000001011100
00000000000000000000000000000010
00000000000000000000000001010101
11111111111111111111111111101011
11111111111111111111111110100010
00000000000000000000000001011111
00000000000000000000000000110110
00000000000000000000000000111100
00000000000000000000000000001111
11111111111111111111111111101000
11111111111111111111111111100001
11111111111111111111111111001000
00000000000000000000000000000000
00000000000000000000000001111010
00000000000000000000000000000111
00000000000000000000000000011101
00000000000000000000000001011110
00000000000000000000000000101101
11111111111111111111111111010101
11111111111111111111111111100010
00000000000000000000000000000100
00000000000000000000000000101010
11111111111111111111111111101010
11111111111111111111111111111101
00000000000000000000000000010000
11111111111111111111111111000111
00000000000000000000000000111011
00000000000000000000000001011110
00000000000000000000000000010001
00000000000000000000000000101101
11111111111111111111111111001100
11111111111111111111111111100101
00000000000000000000000000100001
00000000000000000000000000100011
11111111111111111111111111011110
00000000000000000000000000000110
00000000000000000000000000011001
00000000000000000000000011000001
00000000000000000000000000100010
11111111111111111111111110000010
00000000000000000000000000110110
00000000000000000000000000010001
11111111111111111111111111101101
00000000000000000000000000101000
00000000000000000000000000101000
11111111111111111111111111111100
11111111111111111111111111111001
00000000000000000000000000101001
00000000000000000000000001010101
00000000000000000000000000001000
11111111111111111111111111011111
00000000000000000000000000100110
11111111111111111111111111101111
11111111111111111111111111011110
11111111111111111111111111000100
00000000000000000000000000101111
00000000000000000000000000011110
00000000000000000000000000010110
00000000000000000000000000011001
00000000000000000000000000000000
00000000000000000000000000001010
00000000000000000000000001111000
00000000000000000000000000000111
00000000000000000000000000000110
11111111111111111111111111110111
11111111111111111111111111111001
00000000000000000000000000001111
00000000000000000000000000001100
11111111111111111111111110111011
00000000000000000000000010101101
00000000000000000000000000000011
11111111111111111111111111001100
11111111111111111111111111100111
00000000000000000000000000011010
00000000000000000000000000000110
00000000000000000000000000011111
11111111111111111111111111110010
11111111111111111111111111010000
00000000000000000000000000101110
00000000000000000000000000011011
11111111111111111111111111111101
00000000000000000000000000110111
00000000000000000000000000001000
00000000000000000000000001111001
00000000000000000000000000101111
00000000000000000000000000110100
00000000000000000000000000111000
00000000000000000000000001010001
00000000000000000000000000011110
00000000000000000000000001100111
00000000000000000000000001010000
00000000000000000000000001000011
11111111111111111111111111010010
00000000000000000000000000000010
00000000000000000000000000101101
00000000000000000000000000100011
00000000000000000000000000011000
11111111111111111111111111111000
00000000000000000000000000010000
00000000000000000000000001010000
11111111111111111111111111101100
00000000000000000000000000001011
00000000000000000000000000110010
00000000000000000000000000110000
00000000000000000000000000000100
00000000000000000000000000011111
11111111111111111111111111000111
00000000000000000000000000000010
00000000000000000000000000011011
11111111111111111111111111001110
00000000000000000000000000000101
11111111111111111111111111111011
11111111111111111111111111100111
00000000000000000000000001100010
00000000000000000000000001110110
00000000000000000000000000001000
11111111111111111111111111110111
