1111111111111111
0000000000000000
1111111111111111
0000000000000000
0000000000000000
1111111111111111
1111111111111111
0000000000000000
0000000000000000
0000000000000000
0000000000000000
0000000000000000
1111111111111111
1111111111111111
0000000000000000
0000000000000000
0000000000000000
0000000000000000
1111111111111111
0000000000000000
0000000000000000
1111111111111111
1111111111111111
1111111111111111
0000000000000000
0000000000000000
0000000000000000
0000000000000000
1111111111111111
0000000000000000
0000000000000000
0000000000000000
0000000000000000
0000000000000000
0000000000000000
1111111111111111
0000000000000000
0000000000000000
0000000000000000
0000000000000000
1111111111111111
0000000000000000
0000000000000000
0000000000000000
0000000000000000
0000000000000000
0000000000000000
0000000000000000
1111111111111111
0000000000000000
1111111111111111
0000000000000000
1111111111111111
1111111111111111
1111111111111111
0000000000000000
1111111111111111
1111111111111111
1111111111111111
1111111111111111
0000000000000000
1111111111111111
0000000000000000
1111111111111111
0000000000000000
1111111111111111
0000000000000000
0000000000000000
1111111111111111
0000000000000000
1111111111111111
0000000000000000
1111111111111111
1111111111111111
0000000000000000
1111111111111111
0000000000000000
1111111111111111
0000000000000000
0000000000000000
1111111111111111
0000000000000000
0000000000000000
0000000000000000
1111111111111111
1111111111111111
0000000000000000
0000000000000000
0000000000000000
0000000000000000
0000000000000000
1111111111111111
0000000000000000
0000000000000000
0000000000000000
1111111111111111
0000000000000000
0000000000000000
0000000000000000
0000000000000000
1111111111111111
1111111111111111
1111111111111111
1111111111111111
0000000000000000
0000000000000000
1111111111111111
1111111111111111
0000000000000000
0000000000000000
0000000000000000
0000000000000000
1111111111111111
1111111111111111
0000000000000000
0000000000000000
0000000000000000
0000000000000000
0000000000000000
0000000000000000
0000000000000000
1111111111111111
0000000000000000
0000000000000000
0000000000000000
0000000000000000
0000000000000000
0000000000000000
1111111111111111
0000000000000000
0000000000000000
0000000000000000
1111111111111111
0000000000000000
0000000000000000
0000000000000000
1111111111111111
1111111111111111
0000000000000000
0000000000000000
1111111111111111
1111111111111111
1111111111111111
0000000000000000
0000000000000000
0000000000000000
1111111111111111
0000000000000000
0000000000000000
1111111111111111
0000000000000000
1111111111111111
1111111111111111
1111110011000001
1111110100000101
1111101100000101
0000000011110100
0000001010011000
1111111011110110
1111101110111011
1111101011111110
1111101000110101
1111111010101111
0000000010101111
1111111110000001
1111111111000111
0000001010101110
0000000100100010
1111110111110000
1111111011100100
1111111110011001
1111111111111111
0000000101111100
1111111110000001
0000010011000001
0000011110010110
0000011101111010
1111110100101001
1111111011101010
1111111010001111
1111111101001011
1111111111010010
1111111000000001
1111101111011001
0000001011100101
1111111010010001
0000000101101001
0000001001000010
1111111011101011
1111111111111111
1111111111111111
0000000000000000
0000000000000000
0000000000000000
1111111111111111
0000000000000000
0000000000000000
1111111111111111
1111111111111111
0000000000000000
1111111111111111
1111111111111111
0000000000000000
0000000000000000
1111111111111111
1111111111111111
0000000000000000
0000000000000000
1111111111111111
1111111111111111
1111111111111111
0000000000000000
0000000000000000
1111111111111111
0000000000000000
1111111111111111
0000000000000000
1111111111111111
1111111111111111
0000000000000000
0000000000000000
1111111111111111
1111111111111111
1111111111111111
0000000000000000
1111110110100001
1111111011001000
1111111110101101
0000011010111110
0000101001110100
0000011111100000
0000000001001000
1111111110000010
0000000010101101
1111110011001101
1111110001111110
1111101011111011
1111111011010110
1111111111000011
1111110110101000
1111101101000111
1111110000110001
1111101101000100
0000000000000000
0000000000000000
0000000000000000
1111111111111111
0000000000000000
1111111111111111
1111111111111111
0000000000000000
0000000000000000
1111111011011011
1111111101100111
1111111011110000
1111111110111001
0000000010111111
1111111110101110
1111111011011101
1111111100100000
1111111111101011
1111110110111111
1111110111110011
1111111000111111
0000010101010001
0000000010010001
0000001010000011
1111110110111100
1111111000001000
1111111111000000
1111110111101001
1111110011011010
1111110101101110
0000000110101000
0000000101011101
0000000111001001
1111111111000001
1111111101010100
1111111110001101
1111111111111111
1111111111111111
1111111111111111
0000000000000000
0000000000000000
0000000000000000
0000000000000000
0000000000000000
1111111111111111
1111111111111111
0000000000000000
0000000000000000
0000000000000000
0000000000000000
1111111111111111
0000000000000000
0000000000000000
1111111111111111
0000001000110001
1111101101000001
0000000000000000
1111111101000000
1111110010101100
1111110110010011
0000000011011001
1111101010110100
1111110111010111
0000000101011111
1111110001000001
1111110011101011
1111111111001101
0000000010100100
1111110010100011
0000000100100001
1111110000011010
1111110010001010
1111101101101001
1111101011011100
1111110100111001
1111101110001011
1111111000111100
1111111000110100
0000001100110010
0000000000011000
0000000100110000
0000101011000101
0000100100010111
0000001100111110
0000101100011000
0000011111010011
0000001011111000
0000010011001101
0000000110100000
0000000000110111
0000000000000000
0000000000000000
1111111111111111
0000000000000000
1111111111111111
0000000000000000
0000000000000000
1111111111111111
1111111111111111
1111111111111111
1111111111111111
0000000000000000
1111111111111111
1111111111111111
1111111111111111
0000000000000000
1111111111111111
0000000000000000
0000000000000000
0000000000000000
1111111111111111
0000000000000000
1111111111111111
0000000000000000
0000000000000000
1111111111111111
1111111111111111
0000000000000000
0000000000000000
1111111111111111
0000000000000000
0000000000000000
1111111111111111
0000000000000000
0000000000000000
0000000000000000
0000010001000010
0000001010000100
0000001111000111
1111100011110111
0000010001000011
1111101110110001
1111101010011111
1111100011011110
1111100111001001
1111110010111001
1111111101110100
0000001000010001
1111101100110111
0000011110110110
0000000001100001
1111110101011010
1111111010001010
1111111101000101
1111111111111111
0000000000000000
1111111111111111
0000000000000000
0000000000000000
0000000000000000
0000000000000000
1111111111111111
0000000000000000
1111111111011100
1111111110111011
1111111010111001
0000000101011000
0000001011011000
1111111010100011
1111111101101101
1111111101111001
1111110101101010
1111110101101010
1111101011000000
1111111110100100
1111100111011010
0000000000011111
1111101101011011
1111110001111110
1111101000011001
1111110111001110
0000010000101000
0000011100111101
0000011111100010
0000000001101001
1111111000001011
0000011000101111
1111111101000100
0000000100110110
0000001110000010
0000000000000000
0000000000000000
1111111111111111
0000000000000000
0000000000000000
1111111111111111
0000000000000000
0000000000000000
1111111111111111
1111111111111111
0000000000000000
0000000000000000
0000000000000000
1111111111111111
0000000000000000
1111111111111111
0000000000000000
1111111111111111
0000001000011101
1111111111101100
0000001000101110
1111110011111101
0000001100101000
1111111100100010
0000000001011010
0000000011000110
1111111000001111
0000001111101001
0000000111001001
1111110111010111
0000010001011110
0000000100110001
1111110101001111
1111111111101101
1111110001110110
1111100110000011
0000001111110000
1111111001101111
1111111101011010
0000000000001110
1111111100010100
1111111100000111
0000001010000010
1111111110100010
1111111111101101
0000110000010011
0000011010011110
1111110101100000
0000100001100100
0000010110111111
1111100000110111
1111111101100110
1111100100100100
1111000110001010
0000000000000000
1111111111111111
0000000000000000
0000000000000000
1111111111111111
1111111111111111
0000000000000000
1111111111111111
0000000000000000
1111111111111111
0000000000000000
1111111111111111
0000000000000000
1111111111111111
0000000000000000
0000000000000000
0000000000000000
0000000000000000
0000000000000000
0000000000000000
1111111111111111
1111111111111111
0000000000000000
1111111111111111
0000000000000000
1111111111111111
1111111111111111
1111111111111111
0000000000000000
1111111111111111
1111111111111111
1111111111111111
0000000000000000
0000000000000000
0000000000000000
0000000000000000
0000010001111100
1111111010001110
0000000011110111
1111111010011010
0000000001101010
1111111011100101
0000000101111100
1111110110101101
1111110100001001
0000001000011001
1111111111110010
0000001001110011
1111110001101100
0000000001011110
1111111100011011
0000000011001011
0000000011000001
1111111100001100
0000000000000000
0000000000000000
0000000000000000
0000000000000000
0000000000000000
0000000000000000
0000000000000000
0000000000000000
0000000000000000
0000001010111100
0000001010010110
1111111010110110
0000001101101110
0000000001001101
1111111010100100
0000000000001000
1111111011101111
1111101000001110
0000110000011010
0000011101000001
1111110100000000
0000100010110101
0000001100111010
1111011110111100
0000000000010111
1111100101000110
1111000101011100
0000101000111100
0000010011110010
1111110100101101
0000100010001101
0000001100000010
1111101001101000
0000000110111000
1111101110010011
1111001101110111
1111111111111111
0000000000000000
1111111111111111
1111111111111111
1111111111111111
0000000000000000
1111111111111111
0000000000000000
1111111111111111
1111111111111111
0000000000000000
1111111111111111
0000000000000000
0000000000000000
1111111111111111
1111111111111111
0000000000000000
1111111111111111
1111111010101101
1111101100000111
1111110010000001
1111111011110011
0000010111011010
1111111100001111
0000000101011110
0000001110101010
0000001001000001
0000011101011110
0000000001010110
0000000100101101
0000001011010000
1111111010111100
1111101011111001
0000000110011000
1111101100101100
1111110010100011
1111100011010011
1111011111100011
1111011110110011
1111110110000010
0000110000010011
1111111011000011
0000001000011010
0000001101110111
0000001100110010
1111111110101111
1111110111101100
1111111101101000
0000000001000000
0000010011001011
0000000001100101
0000000010101101
0000000011110100
0000001000110011
0000000000000000
0000000000000000
1111111111111111
0000000000000000
0000000000000000
0000000000000000
0000000000000000
1111111111111111
1111111111111111
0000000000000000
0000000000000000
0000000000000000
1111111111111111
1111111111111111
0000000000000000
1111111111111111
1111111111111111
1111111111111111
1111111111111111
0000000000000000
0000000000000000
0000000000000000
0000000000000000
0000000000000000
1111111111111111
1111111111111111
1111111111111111
0000000000000000
1111111111111111
0000000000000000
1111111111111111
1111111111111111
1111111111111111
0000000000000000
0000000000000000
0000000000000000
1111110100111010
1111101010010011
1111110011111001
1111111010111010
0000010011101101
1111111110000110
0000001010001110
0000000011010110
0000001001101111
1111111001110001
1111101000000111
1111111101000110
1111111011111000
0000100100101110
1111111011100100
0000000001001001
0000001111011111
0000001101100010
0000000000000000
1111111111111111
1111111111111111
0000000000000000
1111111111111111
1111111111111111
0000000000000000
0000000000000000
1111111111111111
0000100100100010
0001000110011101
0000100110011001
1111111011101100
1111000101001000
0000000100001101
1111100011101110
1111101010001010
1111110000011010
1111110110100010
1111110100011011
0000000001001111
1111111001110000
0000001001010101
1111111110101000
1111111000100100
0000000000111100
0000000011000011
0000010110011010
0000000111000101
0000010010100111
0000000110000110
1111101100111101
1111111001010010
0000000000001101
1111110011100001
0000000000000011
1111111111111111
1111111111111111
1111111111111111
1111111111111111
1111111111111111
1111111111111111
1111111111111111
0000000000000000
1111111111111111
0000000000000000
0000000000000000
0000000000000000
0000000000000000
0000000000000000
0000000000000000
0000000000000000
1111111111111111
1111111111111111
1111111010000001
0000000010010010
1111110110011110
0000010011111011
0000001001110101
0000000000111111
0000001101010110
1111110010101100
1111111011100001
1111110000110000
0000000011110011
1111111100101100
0000000011000100
0000000011000010
1111111001110100
1111111010000110
0000000011100001
1111110110100001
1111111001011011
0000000010111110
1111111011000110
1111110101000011
0000000001000100
0000000001001111
1111111011111111
0000010100011001
0000000000011000
0000001011010110
0000010011100111
0000010001110001
0000001011100001
1111011011101000
0000000001010110
0000100001010001
0000100111011101
0000001010110110
0000000000000000
1111111111111111
1111111111111111
1111111111111111
0000000000000000
0000000000000000
0000000000000000
1111111111111111
1111111111111111
1111111111111111
1111111111111111
0000000000000000
0000000000000000
0000000000000000
1111111111111111
1111111111111111
0000000000000000
1111111111111111
1111111111111111
1111111111111111
0000000000000000
1111111111111111
0000000000000000
1111111111111111
0000000000000000
0000000000000000
1111111111111111
0000000000000000
1111111111111111
0000000000000000
1111111111111111
1111111111111111
1111111111111111
1111111111111111
0000000000000000
0000000000000000
1111111010110000
1111111100110100
1111111110001000
0000011000000100
1111110110010110
0000001010001001
0000000010101000
0000000001111110
0000000100010111
1111111100000111
1111111000111110
1111110011100101
0000001001001010
0000001001111011
0000001001100000
1111110100000101
0000000010111110
1111111001111010
0000000000000000
0000000000000000
1111111111111111
1111111111111111
1111111111111111
1111111111111111
1111111111111111
1111111111111111
1111111111111111
1111110001001110
1111110100000000
1111101110010001
1111110100011111
0000001110010010
1111101010111100
1111101111100001
1111101101111010
1111101101011110
0000001110101101
1111111111001100
1111111111100000
1111111110100000
1111101110100110
1111110001111101
1111101011101010
1111100001100110
1111111000010111
0000010011110100
0000000100000111
0000000100010011
0000001101010000
0000000011100111
0000010001011010
0000001010001110
0000001010100000
0000001110011010
0000000000000000
0000000000000000
0000000000000000
1111111111111111
1111111111111111
1111111111111111
1111111111111111
1111111111111111
1111111111111111
1111111111111111
0000000000000000
1111111111111111
1111111111111111
1111111111111111
1111111111111111
0000000000000000
0000000000000000
1111111111111111
1111101101110110
1111011100010011
1111111101011101
1111100011100000
0001010100100011
0000001101000000
1111101000111010
1111110111101000
0000001110011110
1111110010001111
0000000010001001
0000000001011001
0000000000001001
0000010000001010
0000010110001100
1111111111001010
0000000110101010
0000010001010001
1111110011100001
1111111010110111
1111111100010000
1111011100000110
0001001011111000
1111111110011110
1111100110011101
1111110000111010
1111110010110110
1111110001110101
1111111000000000
1111111011110000
1111100101111101
0000101100011101
0000000100001111
1111110001100101
1111110001001011
0000001000110101
1111111111111111
0000000000000000
0000000000000000
1111111111111111
1111111111111111
0000000000000000
1111111111111111
1111111111111111
0000000000000000
1111111111111111
1111111111111111
1111111111111111
1111111111111111
1111111111111111
1111111111111111
0000000000000000
0000000000000000
0000000000000000
0000000000000000
1111111111111111
0000000000000000
1111111111111111
0000000000000000
1111111111111111
0000000000000000
0000000000000000
1111111111111111
1111111111111111
0000000000000000
0000000000000000
0000000000000000
0000000000000000
1111111111111111
0000000000000000
0000000000000000
0000000000000000
1111100010110111
1111111100111101
1111110011110011
1111000110010100
0001011000110011
1111110111010100
1111100000100111
1111110001111000
1111110000010101
1111101011011101
1111100001010100
0000000100001110
1111110111010001
0000101011100101
1111111101001000
1111111010100111
1111101010101001
0000000111100111
0000000000000000
1111111111111111
1111111111111111
1111111111111111
1111111111111111
1111111111111111
0000000000000000
1111111111111111
1111111111111111
1111111001000000
1111111100010001
1111111001011000
1111111101100011
0000001110001000
0000010100011101
0000000010111100
0000010000011010
0000001011101111
1111110001001111
1111110010111110
1111111000010001
0000001000001101
0000110011000001
0000010000100011
0000010001010110
0000011011110001
0000001101000110
1111101101011010
1111110101110110
1111111010000001
1111111001000011
0001000101101000
0000010000011011
0000000010010011
0000001101100010
0000000001100010
0000000000000000
1111111111111111
0000000000000000
0000000000000000
1111111111111111
0000000000000000
0000000000000000
1111111111111111
0000000000000000
1111111111111111
0000000000000000
0000000000000000
1111111111111111
0000000000000000
0000000000000000
0000000000000000
0000000000000000
1111111111111111
0000000010000101
0000000111001100
0000000101010100
0000000001110010
0000001000101011
0000000100010111
1111111011000101
0000000100001001
1111111111101010
0000010011001011
1111111111011001
0000000100011010
0000001111111001
0000000100110010
0000000100010000
0000001100011110
1111111100000100
0000001000011101
0000000011010101
1111111011100010
1111111100011111
0000000111101001
1111011111110110
1111111001011011
0000010000000010
1111110000111101
1111111011100010
1111111101101000
1111101010100001
0000000100110001
0000000101000110
0001000011111010
0000001110100010
1111110101011001
1111011100011111
1111111100001000
0000000000000000
1111111111111111
0000000000000000
1111111111111111
1111111111111111
0000000000000000
1111111111111111
1111111111111111
1111111111111111
1111111111111111
0000000000000000
1111111111111111
0000000000000000
0000000000000000
1111111111111111
0000000000000000
1111111111111111
0000000000000000
1111111111111111
1111111111111111
1111111111111111
0000000000000000
1111111111111111
0000000000000000
1111111111111111
1111111111111111
1111111111111111
0000000000000000
1111111111111111
1111111111111111
0000000000000000
0000000000000000
0000000000000000
1111111111111111
1111111111111111
0000000000000000
0000010011111100
1111110111111111
0000000100101101
1111110110100000
1111010000010000
1111101000010010
1111110001101100
1111011101101100
1111100001110001
0000000100011001
0000010010010100
0000000010111111
0000000111100111
0000001010110101
1111111101000010
0000001111010000
0000001100001001
1111111011100010
1111111111111111
0000000000000000
1111111111111111
1111111111111111
0000000000000000
1111111111111111
0000000000000000
0000000000000000
1111111111111111
0000000000111011
1111111111110010
0000000111011111
1111111100001010
1111110100010001
0000000011101111
1111111101000011
1111111011001100
0000000111000000
0000000101101011
0000010001001111
0000000010000100
1111110111101110
1111001100101101
1111110001111011
0000001110100000
0000011110001001
0000000111111101
1111111100010001
0000010110011110
0000001011000110
1111110111100101
1111110011001000
1111111011111010
0000000111001111
0000001110001101
1111111110001101
0000000000000000
1111111111111111
0000000000000000
1111111111111111
1111111111111111
0000000000000000
0000000000000000
0000000000000000
1111111111111111
0000000000000000
0000000000000000
0000000000000000
1111111111111111
0000000000000000
1111111111111111
0000000000000000
1111111111111111
0000000000000000
1111110100111100
0000000001100111
1111111000001000
1111111000000000
0000011010000010
0000000011110010
1111101011100100
0000000000101110
1111110100001111
0001000010010110
0000011100101011
0000101001000100
0000111010100101
1110101011111011
0000000011101010
0001011110101011
0000111101010110
0001000101100111
1111111011110010
0000000000000001
1111111011111000
1111111110111000
0000001011100010
0000000100111010
1111110101111111
0000000100000111
0000000111100011
1111110111010000
1111110010111110
1111111000111110
1111110010010101
1111100101001011
1111100111010000
1111110001101000
1111101101001101
1111101110100110
1111111111111111
0000000000000000
0000000000000000
1111111111111111
1111111111111111
0000000000000000
0000000000000000
0000000000000000
0000000000000000
1111111111111111
0000000000000000
0000000000000000
0000000000000000
0000000000000000
1111111111111111
0000000000000000
1111111111111111
1111111111111111
0000000000000000
1111111111111111
1111111111111111
0000000000000000
1111111111111111
0000000000000000
0000000000000000
0000000000000000
1111111111111111
1111111111111111
1111111111111111
0000000000000000
1111111111111111
0000000000000000
0000000000000000
1111111111111111
1111111111111111
0000000000000000
1111111000111111
1111111110100000
1111111011000100
1111111001010101
0000010100011101
0000000101110111
1111110110001111
1111110110101000
1111111011000101
1111110011011001
0000000000010100
1111111000000111
1111110110101100
0000011001011011
0000000001100101
1111101100101110
1111111011011110
1111111001010010
0000000000000000
0000000000000000
0000000000000000
0000000000000000
1111111111111111
0000000000000000
0000000000000000
1111111111111111
1111111111111111
1111101010000011
1111111010101101
1111110110101101
0000000000101011
0001001100101001
1111110100011000
1111011011000010
1111011101111010
1111100011011111
1111111110100010
1111111001111000
1111111111011001
1111110101010101
1111110101100111
1111101111100111
1111110101110011
1111101000100001
1111110000011000
0000011110100010
0000001100100001
0000010010001001
0000011101101100
1111001001100001
1111110011111110
0000110000000000
0000000111101100
0000011001011101
0000000000000000
0000000000000000
1111111111111111
0000000000000000
0000000000000000
1111111111111111
1111111111111111
1111111111111111
1111111111111111
0000000000000000
0000000000000000
0000000000000000
0000000000000000
1111111111111111
0000000000000000
1111111111111111
0000000000000000
1111111111111111
1111111111111111
1111111111111111
1111111111111111
1111111111111111
0000000000000000
0000000000000000
1111111111111111
1111111111111111
0000000000000000
0000000000000000
1111111111111111
1111111111111111
1111111111111111
1111111111111111
1111111111111111
1111111111111111
0000000000000000
1111111111111111
1111111111111111
1111111111111111
0000000000000000
1111111111111111
1111111111111111
1111111111111111
1111111111111111
1111111111111111
1111111111111111
1111111111111111
1111111111111111
1111111111111111
1111111111111111
1111111111111111
1111111111111111
1111111111111111
0000000000000000
0000000000000000
0000000000000000
0000000000000000
0000000000000000
0000000000000000
1111111111111111
0000000000000000
1111111111111111
0000000000000000
0000000000000000
0000000000000000
1111111111111111
0000000000000000
1111111111111111
1111111111111111
1111111111111111
1111111111111111
0000000000000000
1111111111111111
0000000000000000
0000000000000000
1111111111111111
1111111111111111
0000000000000000
0000000000000000
1111111111111111
0000000000000000
0000000000000000
0000000000000000
1111111111111111
1111111111111111
1111111111111111
0000000000000000
0000000000000000
0000000000000000
1111111111111111
0000000000000000
1111111111111111
1111111111111111
1111111111111111
1111111111111111
1111111111111111
1111111111111111
1111111111111111
1111111111111111
1111111111111111
1111111111111111
1111111111111111
1111111111111111
1111111111111111
1111111111111111
1111111111111111
1111111111111111
1111111111111111
1111111111111111
0000000000000000
1111111111111111
0000000000000000
0000000000000000
0000000000000000
0000000000000000
0000000000000000
0000000000000000
1111111111111111
1111111111111111
1111111111111111
1111111111111111
1111111111111111
1111111111111111
1111111111111111
1111111111111111
1111111111111111
1111111111111111
0000000000000000
1111111111111111
1111111111111111
0000000000000000
1111111111111111
1111111111111111
0000000000000000
0000000000000000
1111111111111111
0000000000000000
1111111111111111
1111111111111111
0000000000000000
1111111111111111
1111111111111111
0000000000000000
1111111111111111
1111111111111111
0000000000000000
0000000000000000
0000000000000000
0000000000000000
1111111111111111
1111111111111111
1111111111111111
1111111111111111
1111111111111111
1111111111111111
0000000000000000
0000000000000000
0000000000000000
1111111111111111
0000000000000000
0000000000000000
0000000000000000
0000000000000000
1111111110000000
0000010010001110
1111111010101110
0000001100100011
0000011101101001
0000001100111111
0000000011010101
0000010110111101
0000000010001101
1111111100111011
0000001000000100
1111111100100111
1111111010110101
0000001101011110
1111111011110001
1111111111001101
0000001001010011
1111111101101010
1111101101000110
1111110100101111
1111101111101110
1111110000001010
0000000100001100
1111110000001111
1111101000000110
1111111101010001
1111101011010100
1111111001101111
0000000101111110
1111111011010100
1111110110111001
0000010001100101
1111110111010110
1111111010101100
0000000101111011
1111111100100100
1111111111111111
1111111111111111
1111111111111111
1111111111111111
0000000000000000
0000000000000000
0000000000000000
1111111111111111
0000000000000000
0000000000000000
0000000000000000
0000000000000000
1111111111111111
0000000000000000
1111111111111111
1111111111111111
0000000000000000
0000000000000000
1111111111111111
0000000000000000
1111111111111111
1111111111111111
0000000000000000
0000000000000000
1111111111111111
0000000000000000
1111111111111111
0000000000000000
1111111111111111
1111111111111111
1111111111111111
1111111111111111
1111111111111111
1111111111111111
1111111111111111
1111111111111111
1111101110100001
1111111000100010
1111101110010110
1111101111010101
0000001011101010
1111110000111011
1111101111101000
1111110000100010
1111101011001010
1111111111110011
0000011010101101
1111111011101010
0000000101001100
0000110000010110
1111111011100000
0000000000111010
0000011111100001
1111111101110001
0000000000000000
1111111111111111
0000000000000000
0000000000000000
1111111111111111
1111111111111111
1111111111111111
0000000000000000
0000000000000000
1111111100000110
0000000011110111
1111111101100111
1111111000001111
0000000100001010
1111111110010001
1111111011011101
0000000011111111
1111111111000010
1111111011011100
0000000000100101
0000000011100001
0000000000011011
1111111011101110
0000000110100011
0000000010000001
0000000010001000
0000000011111110
1111110011110101
1111111110101001
0000000000001011
1111110100101100
0000000001110100
0000000111001000
1111110101100001
0000000100011000
0000000001111011
1111111111111111
1111111111111111
1111111111111111
0000000000000000
0000000000000000
1111111111111111
0000000000000000
1111111111111111
0000000000000000
0000000000000000
0000000000000000
1111111111111111
0000000000000000
0000000000000000
1111111111111111
0000000000000000
0000000000000000
1111111111111111
1111110010011000
1111111100000100
1111110010100001
0000000110010111
0000010011111011
0000000100000000
1111110111100110
1111101101101100
1111110110001010
1111101111100110
1111111001010000
1111111011100011
1111111100010101
0000000011101011
1111110111001101
1111111000000000
1111111000110101
1111111010010010
0000000111101000
0000100100000100
1111111110101000
1111111110111001
0000001000100101
1111111101111101
1111111111100010
0000101000001111
1111111111111001
1111111010100111
1111110101011110
1111111110001001
1111110110111110
0000000000111001
1111111100011111
0000001011101111
0000001011111100
1111111111001110
1111111111111111
0000000000000000
1111111111111111
0000000000000000
0000000000000000
0000000000000000
0000000000000000
0000000000000000
0000000000000000
1111111111111111
1111111111111111
1111111111111111
1111111111111111
1111111111111111
1111111111111111
0000000000000000
1111111111111111
0000000000000000
0000000000000000
1111111111111111
0000000000000000
0000000000000000
0000000000000000
0000000000000000
1111111111111111
1111111111111111
1111111111111111
1111111111111111
0000000000000000
0000000000000000
0000000000000000
0000000000000000
0000000000000000
1111111111111111
1111111111111111
1111111111111111
1111110111011101
1111110011100101
0000000000111000
0000110000100000
0000100000100110
0000100110001001
0000000111000101
1111110010010010
0000000111001101
1111110111001101
1111110100001011
1111110110111110
0000000100000101
0000011101001111
0000000100101111
1111110000001011
1111110100101100
1111110001001011
0000000000000000
1111111111111111
1111111111111111
0000000000000000
0000000000000000
1111111111111111
1111111111111111
0000000000000000
0000000000000000
0000000011001110
0000000111100010
1111111100010100
0000000011110000
0000000011110101
1111111110010010
0000000010101011
1111111101100111
0000000000111110
0000000010010010
0000000000111001
1111111111110000
0000000111000010
1111110100000011
0000000010011000
1111110001000100
1111110001001011
1111110110010000
1111111100100100
1111110000001101
1111110011100010
0000000000110001
0000000110010101
0000001100110001
1111111111110000
1111111010110000
1111111100011000
1111111111111111
1111111111111111
0000000000000000
1111111111111111
1111111111111111
1111111111111111
0000000000000000
0000000000000000
1111111111111111
0000000000000000
1111111111111111
1111111111111111
1111111111111111
1111111111111111
1111111111111111
1111111111111111
1111111111111111
0000000000000000
1111110101001011
1111110001001100
1111110101110010
1111111101111111
0000000001110000
1111111011011001
1111101101111111
1111110101001110
1111111100100010
0000000000010011
1111111000000111
1111110011101011
0000000010110110
0000000111010001
0000000001100110
1111111110101110
1111111101101010
1111111110100010
1111111000101111
1111110100110100
1111110110110100
0000010111001111
0000100101001110
0000100000001111
1111111010101000
0000001000010110
0000001100100101
0000000010000000
1111110101010110
1111111100010001
0000010000101000
0000001100101110
0000000101100011
1111110100100110
1111100100000010
1111110100101000
0000000000000000
0000000000000000
0000000000000000
1111111111111111
0000000000000000
0000000000000000
0000000000000000
0000000000000000
0000000000000000
0000000000000000
1111111111111111
1111111111111111
1111111111111111
0000000000000000
0000000000000000
1111111111111111
0000000000000000
0000000000000000
0000000000000000
0000000000000000
0000000000000000
1111111111111111
1111111111111111
1111111111111111
0000000000000000
1111111111111111
1111111111111111
0000000000000000
0000000000000000
0000000000000000
1111111111111111
0000000000000000
1111111111111111
0000000000000000
1111111111111111
1111111111111111
1111111101101111
0000001011001100
1111111100101100
0000000000010011
0000010100101111
0000000011001111
1111111011010000
0000000101010111
1111111111010010
1111110100010100
1111110011110100
1111101011000100
1111110110101001
0000000111110111
0000000101010100
1111110010111011
1111110001010110
1111110010011011
1111111111111111
0000000000000000
1111111111111111
0000000000000000
1111111111111111
0000000000000000
1111111111111111
1111111111111111
1111111111111111
0000000001001000
1111111011101010
1111111101011001
0000000001100010
1111111110001101
0000000000000110
0000000100111011
1111111111011011
0000000000000111
1111111011011000
0000000101011111
1111111100110110
1111110101000000
1111110111011011
1111111010011011
0000001000110110
0000010110110010
0000001100110101
1111111011011011
0000000101110001
0000000111111100
1111111011100100
1111111101100001
0000000010011001
1111111010000110
1111111100011010
1111111101011000
0000000000000000
1111111111111111
0000000000000000
0000000000000000
1111111111111111
1111111111111111
1111111111111111
0000000000000000
0000000000000000
0000000000000000
1111111111111111
0000000000000000
1111111111111111
0000000000000000
0000000000000000
0000000000000000
0000000000000000
0000000000000000
0000010111101010
1111111011110110
0000001101000001
0000000011001010
1111110101011000
0000000110010011
1111110011000011
0000001011101011
0000000011011110
0000010000111011
0000000111000101
1111111001100101
0000001000110000
1111000010101010
1111111101000101
0000000110100111
0000000101001010
0000000001101000
0000000010110000
1111110010001100
0000000110111100
0000011100100101
1110101100011100
0000001100110010
0000001000010010
1111111010111011
0000001110011001
0000001101100011
0000011010101110
1111111110011111
0000000011000101
1111100111101101
1111111100100010
1111101111100100
1111111010011001
0000000010100110
0000000000000000
1111111111111111
1111111111111111
0000000000000000
0000000000000000
0000000000000000
1111111111111111
1111111111111111
1111111111111111
0000000000000000
1111111111111111
1111111111111111
0000000000000000
1111111111111111
1111111111111111
1111111111111111
0000000000000000
0000000000000000
1111111111111111
1111111111111111
1111111111111111
0000000000000000
1111111111111111
0000000000000000
1111111111111111
1111111111111111
0000000000000000
1111111111111111
0000000000000000
1111111111111111
1111111111111111
1111111111111111
0000000000000000
0000000000000000
1111111111111111
1111111111111111
0000000010000101
0000001111101001
1111111111100000
1111010111101110
0001100100111101
1111110011101100
1111110011010000
1111111111011110
1111101111000100
1111101011101110
0000001110111111
0000001011000110
1111110011111111
1111110110000101
0000000101010000
0000000110111101
1111110011011110
0000001111101010
0000000000000000
0000000000000000
1111111111111111
0000000000000000
1111111111111111
0000000000000000
0000000000000000
1111111111111111
0000000000000000
0000001010110100
1111111111111110
0000000001011111
0000010100110000
1111100101111010
0000000011001101
0000001100000111
0000001000000110
0000000000100101
0000001100011011
0000000110101011
0000010010111011
1111111110001000
1111101011100011
0000000101100101
0000011010110011
0000000010000111
0000000110110111
1111111111101010
1111111100110111
0000001010011101
0000000001001011
0001000110101000
1111110011011101
1111111110101101
1111110010010000
1111111011101000
1111111111111111
1111111111111111
1111111111111111
1111111111111111
0000000000000000
0000000000000000
1111111111111111
0000000000000000
0000000000000000
1111111111111111
0000000000000000
0000000000000000
0000000000000000
0000000000000000
0000000000000000
1111111111111111
0000000000000000
0000000000000000
1111111100100100
0000100110010010
0000000010010010
1111111110000011
1111011011110010
0000000011101010
1111101001101001
0000010001011011
1111111001100000
0000001001110011
0000010001110101
1111111110000010
0000001011110111
1111101111010001
0000001101011001
0000000110111111
0000000101100111
0000001000010100
0000001111111100
0000000110010011
0000001111001101
0000010101110010
1110010000110101
1111111111100101
0000011010101001
1111101011101110
0000010010111101
0000010001111101
0000011001000010
0000001001000010
1111110100100111
0000110010010010
0000010010000000
1111101001111110
1111011111110100
0000000010011000
1111111111111111
0000000000000000
1111111111111111
0000000000000000
1111111111111111
1111111111111111
0000000000000000
0000000000000000
1111111111111111
1111111111111111
0000000000000000
1111111111111111
1111111111111111
1111111111111111
1111111111111111
1111111111111111
1111111111111111
0000000000000000
0000000000000000
0000000000000000
1111111111111111
1111111111111111
1111111111111111
0000000000000000
0000000000000000
0000000000000000
0000000000000000
1111111111111111
1111111111111111
0000000000000000
0000000000000000
0000000000000000
1111111111111111
0000000000000000
1111111111111111
1111111111111111
0000000101000100
0000000001101000
0000010011100011
1111111010100001
1110000010010100
1111011110001111
0000000100110001
1111101010110011
1111111000011110
1111110011101110
0000010000100000
0000001101110011
0000010110001000
0000010111110110
0000010001010000
0000000000000111
0000001000001000
1111111110000001
1111111111111111
1111111111111111
0000000000000000
0000000000000000
1111111111111111
1111111111111111
1111111111111111
0000000000000000
1111111111111111
1111111011001011
1111111011000111
1111111101011011
0000000001101000
0000001100110001
1111111111101001
1111111100001100
1111111111101000
0000000100011111
0000000101001011
0000001011010001
0000000010111000
0000001011100011
1111001001001001
0000000010101001
0000100000001110
0000110001000101
0000001110010000
1111111111110011
1111111011110110
0000001101011111
1111111100001110
0000000010100011
1111101011010010
1111111010011011
1111111100100011
1111110101110010
0000000000000000
1111111111111111
1111111111111111
1111111111111111
1111111111111111
0000000000000000
0000000000000000
1111111111111111
0000000000000000
0000000000000000
0000000000000000
0000000000000000
0000000000000000
0000000000000000
1111111111111111
0000000000000000
0000000000000000
0000000000000000
1111110111111000
1111100000101101
1111001111100111
0000000011111011
0001001001100111
1111100011101000
1111111011000111
1111011101100011
1111001100000011
1111110111100001
1111110010111010
0000000000011110
1111110110011100
0000001110010010
0000000011101010
1111111100011011
1111111011001011
0000000010001111
0000001010111100
1111111110101011
0000000011011011
1111111010011100
0000101011001011
1111101000000100
0000000111011110
0000001000011010
0000000110111011
0000000010001011
1111111011000001
0000000010011100
1111111010010010
0000011001011010
1111111110010011
0000001110110010
0000010001010100
0000000001000010
0000000000000000
0000000000000000
1111111111111111
0000000000000000
1111111111111111
1111111111111111
1111111111111111
1111111111111111
0000000000000000
0000000000000000
0000000000000000
0000000000000000
0000000000000000
1111111111111111
0000000000000000
1111111111111111
1111111111111111
0000000000000000
1111111111111111
0000000000000000
0000000000000000
1111111111111111
1111111111111111
0000000000000000
0000000000000000
0000000000000000
1111111111111111
1111111111111111
1111111111111111
1111111111111111
0000000000000000
0000000000000000
0000000000000000
0000000000000000
1111111111111111
0000000000000000
0000001100111110
0000000011101101
0000010101101001
0000000101110111
0000100000111000
1111111001011001
0000000010100101
1111111000011010
1111111011110100
1111111100100110
1111010111110000
1111010000000100
0000000100001101
0001000111001110
1111100011011010
1111100110111110
1111100000101011
1111001110011100
0000000000000000
1111111111111111
0000000000000000
0000000000000000
1111111111111111
1111111111111111
1111111111111111
0000000000000000
0000000000000000
0000000100101010
0000000100000111
1111111111100011
0000000011010011
1111111001101101
0000001101110010
0000000000011101
0000000011110101
0000000111010111
0000001000010110
0000000011100101
0000001000010100
1111111101010010
0000010110011100
1111110111000001
0000000000001101
1111111101111010
0000001000010100
0000000011111100
0000000010001110
0000000111101111
1111111101100101
0000001011010010
0000000110001000
0000000001111001
1111111000111111
0000001001011101
1111111111111111
1111111111111111
0000000000000000
1111111111111111
1111111111111111
1111111111111111
0000000000000000
1111111111111111
1111111111111111
0000000000000000
0000000000000000
0000000000000000
1111111111111111
1111111111111111
0000000000000000
0000000000000000
0000000000000000
0000000000000000
0000000111010011
1111111100011011
1111111001001001
0000001000100100
1111110001011111
1111111011100100
0000000010000001
1111110110110110
1111101111011010
0000000010111101
1111111011010010
1111110110110011
0000000000011101
0000000011010010
1111101111010111
1111111001110011
1111111011101100
1111110110111111
1111101000000101
1111110011110100
1111110011111000
0000001000010000
0000001101001010
1111110011110110
0000010011111100
0000010010111100
1111111000111010
0000000110001111
1111111100011111
1111110111110101
0000000111000100
0000000110101110
1111001111001001
1111111011110010
1111101111001110
1111101110010100
0000000000000000
0000000000000000
1111111111111111
0000000000000000
0000000000000000
1111111111111111
0000000000000000
1111111111111111
0000000000000000
0000000000000000
1111111111111111
1111111111111111
0000000000000000
1111111111111111
1111111111111111
0000000000000000
0000000000000000
0000000000000000
1111111111111111
1111111111111111
1111111111111111
1111111111111111
0000000000000000
0000000000000000
1111111111111111
1111111111111111
0000000000000000
0000000000000000
0000000000000000
1111111111111111
1111111111111111
1111111111111111
1111111111111111
1111111111111111
1111111111111111
0000000000000000
1111110101011111
1111111010010000
1111100111010011
0000000000011101
0000100100100001
1111111001010000
1111110100011100
0000000100101101
1111111011100001
0000001001000101
0000100010100100
0000000111011000
0000000100010110
1111100111001101
1111110000011010
0000001110000010
0000001110101001
1111111101000001
0000000000000000
1111111111111111
0000000000000000
0000000000000000
1111111111111111
0000000000000000
0000000000000000
1111111111111111
1111111111111111
1111111010010010
1111111011110011
0000000011010011
1111111110101110
0000010010011111
1111111110011000
0000000000110111
0000000001011000
1111111011010011
0000010101101011
0000011011110011
0000011100010011
1111111101011011
1111100001111010
0000001111110011
0000000000011100
1111111011110001
1111111110011001
0000000010000001
0000011001101001
0000011000111101
1111111101000001
1111101010000011
0000010110011011
0000000010100010
0000001001101011
0000001101110000
0000000000000000
0000000000000000
0000000000000000
1111111111111111
1111111111111111
0000000000000000
0000000000000000
1111111111111111
1111111111111111
0000000000000000
0000000000000000
0000000000000000
0000000000000000
0000000000000000
1111111111111111
0000000000000000
0000000000000000
1111111111111111
1111101011010010
1111111011101111
1111111110101100
1111100011110001
0000011000000010
0000001010101001
1111110110100110
0000011100011101
1111111001101010
1111110101000011
1111101011010100
1111111011111110
1111110100100001
0000000000011010
0000000001111001
1111111001010001
1111111011011100
1111111101001101
1111101111101000
1111110111111010
0000000101110100
0000010111101101
0000000100000111
1111111000000111
0000001101000100
1111110010000110
1111110100011100
1111111001100110
1111110010101100
1111110111010110
1111111101010111
1111101110111101
0000000100011101
1111110010111000
1111111010100100
0000001100011000
0000000000000000
1111111111111111
1111111111111111
0000000000000000
0000000000000000
1111111111111111
0000000000000000
0000000000000000
1111111111111111
1111111111111111
0000000000000000
1111111111111111
1111111111111111
1111111111111111
1111111111111111
1111111111111111
1111111111111111
1111111111111111
0000000000000000
0000000000000000
1111111111111111
0000000000000000
1111111111111111
0000000000000000
1111111111111111
0000000000000000
0000000000000000
1111111111111111
0000000000000000
1111111111111111
0000000000000000
0000000000000000
0000000000000000
1111111111111111
0000000000000000
1111111111111111
1111110100010111
1111101111011100
1111110110100011
1111100011011111
1111101111101011
0000000011001011
1111101001101001
1111111101101110
1111111000111111
1111110010010110
0000011100011011
0000000110011011
0000010000100011
1111111110010011
1111111011111011
0000010001001010
1111111101011100
1111111111000101
1111111111111111
0000000000000000
0000000000000000
0000000000000000
1111111111111111
1111111111111111
1111111111111111
0000000000000000
0000000000000000
1111111100000100
1111110101110001
1111111011011101
1111111111101001
0000000101111110
0000000011001100
1111111101001010
1111111111011100
0000000110010011
1111011101010000
0000000000011100
0000001011011100
1111110011101010
0000001010100110
0000001010101011
0000000111101010
0000001111111101
0000000000100000
1111111100100101
0000101010010001
0000000011100111
0000001111010000
0000001100111110
1111111110001101
0000001011001100
0000001110111010
1111111000110001
1111111111111111
1111111111111111
1111111111111111
0000000000000000
1111111111111111
0000000000000000
1111111111111111
0000000000000000
0000000000000000
1111111111111111
1111111111111111
1111111111111111
1111111111111111
0000000000000000
0000000000000000
0000000000000000
1111111111111111
0000000000000000
1111110011001100
1111101000000011
0000001011111111
1111111101101101
1111111100111111
0000011100011001
1111110100000011
1111111010111100
0000010110110010
0000000000010010
1111110001001100
1111110111100100
0000000001000011
1111110100011111
1111111111110110
1111111000010110
1111110000110011
1111111100111111
1111101011101100
1111101111111011
1111111011101111
1111010111000001
0000011000001100
0000001011000110
0000000100100000
0000010001100110
1111111110010010
0000000100011010
1111111001001111
1111111000010010
0000001111001010
1111110101001000
1111101011101011
0000000001010101
1111100011010111
1111111100111001
0000000000000000
1111111111111111
0000000000000000
1111111111111111
1111111111111111
0000000000000000
0000000000000000
1111111111111111
0000000000000000
0000000000000000
0000000000000000
1111111111111111
1111111111111111
0000000000000000
1111111111111111
0000000000000000
0000000000000000
0000000000000000
0000000000000000
0000000000000000
1111111111111111
1111111111111111
1111111111111111
0000000000000000
1111111111111111
1111111111111111
0000000000000000
1111111111111111
0000000000000000
1111111111111111
1111111111111111
0000000000000000
0000000000000000
0000000000000000
1111111111111111
1111111111111111
1111110001011011
0000000001100001
1111111011100011
1111100011100110
1111111111100111
1111111001010110
1111011110100001
1111111101111011
0000000110011111
1111101001111111
0000011111011110
0000001101110001
1111100101001001
0000010010001111
0000001011101111
1111111110000111
0000100011011101
0000000111001011
0000000000000000
1111111111111111
0000000000000000
0000000000000000
0000000000000000
0000000000000000
1111111111111111
0000000000000000
1111111111111111
1111111111011011
1111111011000111
1111111110001010
0000000000010001
1111111111101111
0000000010100100
0000000000111011
1111111101011111
1111111110010111
1111101110111001
1111111010100000
0000000101111001
1111100011011100
0000000100100100
0000010001110100
1111110010001001
0000011000011111
0000001100100100
1111111100110011
0000011111011011
0000010010000110
1111110010110111
0000010011110000
0000001011101101
1111111110101001
0000011011000110
0000000101000110
0000000000000000
0000000000000000
1111111111111111
0000000000000000
0000000000000000
1111111111111111
0000000000000000
0000000000000000
0000000000000000
1111111111111111
0000000000000000
0000000000000000
1111111111111111
1111111111111111
1111111111111111
0000000000000000
1111111111111111
1111111111111111
1111111111111111
1111111111111111
1111111111111111
0000000000000000
0000000000000000
0000000000000000
1111111111111111
1111111111111111
1111111111111111
0000000000000000
1111111111111111
1111111111111111
0000000000000000
0000000000000000
1111111111111111
1111111111111111
1111111111111111
1111111111111111
1111111111111111
1111111111111111
1111111111111111
1111111111111111
1111111111111111
1111111111111111
0000000000000000
1111111111111111
1111111111111111
0000000000000000
1111111111111111
1111111111111111
0000000000000000
1111111111111111
1111111111111111
1111111111111111
1111111111111111
0000000000000000
0000000000000000
0000000000000000
0000000000000000
1111111111111111
1111111111111111
0000000000000000
0000000000000000
0000000000000000
1111111111111111
0000000000000000
1111111111111111
1111111111111111
1111111111111111
1111111111111111
0000000000000000
1111111111111111
1111111111111111
0000000000000000
0000000000000000
0000000000000000
1111111111111111
1111111111111111
0000000000000000
0000000000000000
0000000000000000
1111111111111111
1111111111111111
1111111111111111
0000000000000000
0000000000000000
0000000000000000
1111111111111111
1111111111111111
0000000000000000
0000000000000000
0000000000000000
1111111111111111
1111111111111111
1111111111111111
1111111111111111
1111111111111111
1111111111111111
1111111111111111
1111111111111111
1111111111111111
1111111111111111
1111111111111111
0000000000000000
1111111111111111
1111111111111111
1111111111111111
1111111111111111
1111111111111111
1111111111111111
0000000000000000
0000000000000000
0000000000000000
0000000000000000
1111111111111111
1111111111111111
1111111111111111
1111111111111111
0000000000000000
1111111111111111
1111111111111111
1111111111111111
0000000000000000
1111111111111111
1111111111111111
0000000000000000
1111111111111111
0000000000000000
1111111111111111
0000000000000000
0000000000000000
0000000000000000
1111111111111111
1111111111111111
0000000000000000
0000000000000000
0000000000000000
1111111111111111
1111111111111111
0000000000000000
1111111111111111
1111111111111111
1111111111111111
1111111111111111
0000000000000000
0000000000000000
0000000000000000
0000000000000000
1111111111111111
0000000000000000
0000000000000000
1111111111111111
0000000000000000
0000000000000000
0000000000000000
0000000000000000
1111111111111111
0000000000000000
0000000000000000
1111111111111111
0000000000000000
1111111111111111
0000000000000000
0000000000000000
0000001101010101
0000001100001110
0000000101100011
1111101101011101
1110101001110001
1111111110000111
0000000111011110
1111110001111010
0000001010010000
0000001111110111
0000100000001000
0000001001000011
0000011100000110
1110110110000001
0000001100000110
0000001100101110
0000001100000000
0000000001010100
1111110101111011
0000001111110001
1111110011110011
0000011011001011
1111101111100001
0000010111111000
1111111001000101
0000001011000100
1111111010000101
1111111110010111
1111111110111000
1111111011100111
1111101000101101
0001000010111111
1111111001010101
1111111001110100
0000000010000100
0000000011110101
1111111111111111
0000000000000000
0000000000000000
0000000000000000
1111111111111111
0000000000000000
1111111111111111
0000000000000000
1111111111111111
1111111111111111
1111111111111111
1111111111111111
0000000000000000
1111111111111111
0000000000000000
0000000000000000
1111111111111111
0000000000000000
1111111111111111
0000000000000000
0000000000000000
0000000000000000
1111111111111111
1111111111111111
1111111111111111
0000000000000000
1111111111111111
1111111111111111
0000000000000000
0000000000000000
1111111111111111
0000000000000000
0000000000000000
0000000000000000
1111111111111111
1111111111111111
1111111110100001
0000001110100010
1111111001011101
0000010100010001
1111010111100101
0000100001101010
0000000010100111
0000001111001001
1111111001010110
0000010111010011
0000000010011010
0000001101100001
1111110101010000
1100101100011111
1111100101111000
0000011011111001
1111111010011010
0000010110001011
1111111111111111
1111111111111111
0000000000000000
0000000000000000
0000000000000000
1111111111111111
0000000000000000
1111111111111111
0000000000000000
0000000000011000
0000000101010001
0000000100000111
0000010000010101
1111111101001111
0000000010010110
0000000101001110
0000000011111010
0000000100010110
0000011101100000
0000010110011110
1111111011011000
0001000110101001
1110101001001001
0000100001011111
0000010111100111
0000001100101011
0000000000110100
1111101110110000
1111100011001011
1111111101000010
0000000100001111
0001010011111000
0000000100001111
1111111101000011
0000000010111110
0000000010011011
0000000000000000
1111111111111111
0000000000000000
0000000000000000
0000000000000000
0000000000000000
1111111111111111
1111111111111111
1111111111111111
0000000000000000
1111111111111111
0000000000000000
1111111111111111
1111111111111111
1111111111111111
0000000000000000
0000000000000000
1111111111111111
0000000100001100
0000001111111111
1111111110110111
0000011110110001
0000111111010100
0000011010010100
0000000100111111
0000001000010001
1111111101010111
0000000100111010
1111111111010100
1111111100011101
0000000100111011
0000010000011000
0000000101010011
1111111100111010
1111111011101110
1111110010111101
0000011111100001
1111111101000111
0000010111011101
0000001101110111
1101111100011110
1111111111001101
0000001011111011
1111110000010000
0000000111101111
0000010000001110
0000011111111101
1111111101110001
0000010000110111
0000000111101100
1111111110100100
0000000101101011
0000001010001001
0000000000100111
1111111111111111
1111111111111111
0000000000000000
0000000000000000
1111111111111111
1111111111111111
1111111111111111
0000000000000000
1111111111111111
1111111111111111
1111111111111111
0000000000000000
0000000000000000
0000000000000000
1111111111111111
0000000000000000
0000000000000000
0000000000000000
0000000000000000
0000000000000000
0000000000000000
0000000000000000
1111111111111111
0000000000000000
0000000000000000
0000000000000000
1111111111111111
1111111111111111
1111111111111111
1111111111111111
0000000000000000
1111111111111111
0000000000000000
0000000000000000
1111111111111111
0000000000000000
0000001100101101
1111111011111100
0000001010100000
0000001000110100
1101011011110001
1111110101000010
0000010001011100
1111111100011111
0000100001101111
0000000010101011
0000111010001001
1111111111010101
1111110011011100
1110101101101010
1111111010111000
1111110110100011
0000110100110101
1111111111100100
1111111111111111
1111111111111111
1111111111111111
1111111111111111
0000000000000000
1111111111111111
1111111111111111
1111111111111111
0000000000000000
0000000010111010
0000000000001110
0000000010111001
0000000010011001
0000001100111001
0000000101011001
0000000100111111
1111111000011110
1111111101000001
1111111000011111
0000000100000000
0000000100010111
0000000100110001
1111111001100000
1111111111101111
1111111001010000
0000001110110001
1111111011101011
0000000101010011
0000001001110101
0000000111001100
0000000110100001
1111101100111001
0000001101010100
0000000010001011
0000001111100110
0000010010001010
0000000000000000
1111111111111111
1111111111111111
0000000000000000
0000000000000000
1111111111111111
1111111111111111
0000000000000000
0000000000000000
1111111111111111
0000000000000000
0000000000000000
1111111111111111
0000000000000000
0000000000000000
1111111111111111
0000000000000000
0000000000000000
0000001111101010
0000010011000110
0000000000011011
0001001001010110
0000101101000111
0000010111000000
0000001101110101
0000000001011111
1111111110111000
0000000000011111
0000001101110110
1111111010101100
0000000000000011
0000000100100000
1111110010111011
1111111101001000
0000010000101100
1111111010101011
1111101100001000
1111110011000101
1111101110101000
1111110011101010
0000011010010010
1111110010010100
1111100010110100
0000001011000011
1111101001100111
1111111010000101
0000001100000111
1111111110101111
1111111011111000
1111111110100010
1111101010000000
1111111000001010
0000001000011111
1111111011110101
1111111111111111
1111111111111111
1111111111111111
0000000000000000
1111111111111111
1111111111111111
1111111111111111
0000000000000000
0000000000000000
1111111111111111
0000000000000000
1111111111111111
1111111111111111
0000000000000000
0000000000000000
1111111111111111
0000000000000000
0000000000000000
1111111111111111
0000000000000000
0000000000000000
1111111111111111
1111111111111111
0000000000000000
1111111111111111
1111111111111111
1111111111111111
0000000000000000
1111111111111111
0000000000000000
1111111111111111
0000000000000000
1111111111111111
0000000000000000
0000000000000000
0000000000000000
1111101011001001
0000000001000010
1111110001011001
1111110110001000
0000011111101101
1111110101000001
1111111100010101
1111111000001001
1111101100000101
1111101101101100
0000101111101011
1111111110111000
1111011101111110
0000100000111011
0000000010001001
1111100101111011
0000011001100011
1111111101001011
0000000000000000
1111111111111111
1111111111111111
0000000000000000
0000000000000000
0000000000000000
1111111111111111
1111111111111111
1111111111111111
0000000000000000
0000000000101000
0000000000100011
1111111101000111
1111111111101001
1111111101011011
1111111110101010
0000000000111100
1111111110010001
0000000100010110
1111111110010010
1111111111100111
1111111110011001
1111110101110101
0000001001000011
0000000011010111
1111111110101111
0000000010111101
1111101110110111
0000000011001101
0000000100001100
1111101001001001
0000000101101011
0000010001101001
1111110000001011
1111111101101110
0000000011011000
0000000000000000
0000000000000000
1111111111111111
0000000000000000
1111111111111111
0000000000000000
1111111111111111
0000000000000000
0000000000000000
1111111111111111
0000000000000000
0000000000000000
0000000000000000
0000000000000000
0000000000000000
1111111111111111
0000000000000000
1111111111111111
0000001001011101
1111011100010111
1111101011010101
1111111111100101
0000001001001000
1111101111010100
0000010010000000
0000001101100010
0000001000010100
0000000110000000
1111110101010101
1111110111111011
1111111001111010
1111111001100110
0000000110100001
0000001010011110
0000000111011010
0000010100000001
1111101010000101
1111011001111100
1111100000100010
1111110111100011
0000100010010101
1111110111101110
0000010111010101
0000001110101011
0000011000011001
1111111001101100
1111100111100000
1111101111001001
1111111100111111
0000100100111011
0000000010101010
0000001001110110
0000001011010101
0000001010101111
1111111111111111
0000000000000000
0000000000000000
0000000000000000
1111111111111111
1111111111111111
1111111111111111
1111111111111111
1111111111111111
0000000000000000
1111111111111111
1111111111111111
0000000000000000
1111111111111111
0000000000000000
1111111111111111
1111111111111111
1111111111111111
1111111111111111
0000000000000000
0000000000000000
0000000000000000
1111111111111111
1111111111111111
0000000000000000
1111111111111111
0000000000000000
0000000000000000
0000000000000000
0000000000000000
1111111111111111
1111111111111111
0000000000000000
0000000000000000
0000000000000000
1111111111111111
1111110000000100
1111101101101110
1111110011100000
1111110011100010
1111111011011000
1111101101001011
0000011010010101
0000001101011110
0000010011011001
1111111100010110
1111011010011101
1111110110110111
1111111011100011
0000011011101000
1111111000010100
0000001100101101
0000001111001100
0000000110010011
0000000000000000
0000000000000000
1111111111111111
1111111111111111
0000000000000000
1111111111111111
0000000000000000
1111111111111111
1111111111111111
1111111110010000
1111110011101011
1111101011111110
0000001011001101
0000011001110011
0000000010100000
0000000111101011
0000000111111101
0000000001110001
1111101001010110
1111100010101110
1111101110000010
1111111000010001
0000001101100010
0000000010110100
0000001111010000
0000010101011100
0000001101000000
1111101101100000
1111101001010100
1111111110001101
1111110111010000
0000001000100010
0000000010010001
0000010000000001
0000010101011011
0000001111111101
0000000000000000
0000000000000000
0000000000000000
1111111111111111
0000000000000000
0000000000000000
0000000000000000
1111111111111111
0000000000000000
0000000000000000
0000000000000000
0000000000000000
0000000000000000
0000000000000000
0000000000000000
1111111111111111
0000000000000000
1111111111111111
1111111110110101
1111101111010100
1111101110101001
0000000000101011
0000010000111010
0000000100101001
1111110011110100
1111111101110010
1111111100110010
0000000001100101
0000001010011100
1111111010101111
0000000001000010
0000000110001010
0000001000000110
1111111011101100
1111111110111110
0000000001000101
0000001001111100
0000000011010111
0000000110001000
0000011110001000
1111111011001101
0000100011011111
1111111110110100
0000000011010011
0000000110111111
0000001111001011
0000011010101110
0000000001000000
1111110010000011
1111111011110001
0000000110011000
1111111111101000
1111111010010111
1111111110000001
1111111111111111
0000000000000000
1111111111111111
1111111111111111
0000000000000000
0000000000000000
0000000000000000
1111111111111111
1111111111111111
0000000000000000
0000000000000000
1111111111111111
1111111111111111
0000000000000000
1111111111111111
1111111111111111
0000000000000000
0000000000000000
1111111111111111
0000000000000000
0000000000000000
1111111111111111
0000000000000000
0000000000000000
1111111111111111
1111111111111111
0000000000000000
0000000000000000
1111111111111111
1111111111111111
1111111111111111
0000000000000000
1111111111111111
0000000000000000
1111111111111111
0000000000000000
1111100011011100
1111011100101011
1111100000010000
1111101111011111
1111110000101010
1111100110111110
1111111010111101
1111111111011011
1111110100100011
1111101111111000
1111111101001010
1111110101111111
0000000100101110
0000001100011011
1111111101011001
1111111110111011
0000000011100100
0000000000010011
1111111111111111
0000000000000000
1111111111111111
0000000000000000
1111111111111111
0000000000000000
1111111111111111
0000000000000000
1111111111111111
1111111011001000
0000000101011111
1111111110101110
1111111101100100
0000000111001000
1111111110001011
1111111110101001
0000000010001001
1111111110101011
1111100101110000
1111011111101111
1111101110100010
0000010011110101
0000000010110000
0000001010101011
0000001100110010
0000001111100111
0000010100100000
1111110100100000
1111110010101101
0000000110000001
1111111100011000
1111111101100001
1111111101000111
1111111001110011
1111111111010111
0000000101010100
0000000000000000
1111111111111111
1111111111111111
0000000000000000
0000000000000000
1111111111111111
0000000000000000
1111111111111111
0000000000000000
0000000000000000
1111111111111111
0000000000000000
1111111111111111
0000000000000000
1111111111111111
1111111111111111
1111111111111111
1111111111111111
0000000011110100
0000000101011111
1111111111101010
0000000111001000
0000111011101010
0000001100010011
1111101101110110
0000001110000110
1111110000111010
1111110110011011
0000000100010100
1111101110111010
1111111001111000
0000100000101001
0000001010000101
1111110110001001
0000000101111110
1111111111011110
1111110111110000
1111101111101111
1111110010110001
0000000111110110
0001000111111101
0000001011011001
1111111010001011
1111100100010011
1111111000000111
1111101100010000
1111110100110001
1111101110011000
1111110110110000
0000011000101010
1111111011001100
1111110101010111
1111111010100001
0000000010001100
1111111111111111
0000000000000000
0000000000000000
0000000000000000
0000000000000000
0000000000000000
0000000000000000
0000000000000000
1111111111111111
1111111111111111
1111111111111111
0000000000000000
0000000000000000
0000000000000000
0000000000000000
0000000000000000
1111111111111111
1111111111111111
1111111111111111
1111111111111111
0000000000000000
0000000000000000
1111111111111111
0000000000000000
1111111111111111
0000000000000000
0000000000000000
1111111111111111
1111111111111111
1111111111111111
0000000000000000
1111111111111111
1111111111111111
1111111111111111
1111111111111111
1111111111111111
1111110111001100
0000011100010000
1111110100101100
1111111100000110
0000010101110100
1111111100101001
1111110011111001
0000011001110111
1111110000011101
1111110100000110
0000001011100101
1111111110010100
0000000001111111
0000110000010010
0000000011110011
1111111111100000
1111111001000110
1111111110010101
0000000000000000
1111111111111111
1111111111111111
1111111111111111
1111111111111111
0000000000000000
1111111111111111
1111111111111111
1111111111111111
1111110100110010
1111110111001010
1111111010010100
1111110010110000
0000001011010101
0000000100011100
1111111011010100
0000000101100100
0000000110110111
1111110100100010
1111111100110100
1111111010001100
1111111011101010
0000000001011101
0000000100101011
1111111010000111
0000000011010010
1111111111100101
1111100110011101
1111111111011111
0000000101100010
1111111010000001
0000010011100000
1111111001100001
1111111010111011
0000000010010101
1111110101000100
1111111111111111
1111111111111111
0000000000000000
0000000000000000
0000000000000000
0000000000000000
0000000000000000
0000000000000000
1111111111111111
0000000000000000
1111111111111111
0000000000000000
1111111111111111
0000000000000000
0000000000000000
0000000000000000
0000000000000000
0000000000000000
0000000100001101
1111010110110011
1111101000010101
0000000100110110
0000111010011000
1111110011111011
1111111100001011
0000001000111001
1111110000010100
0000000111011010
0000000010010111
1111111100000011
1111111110010001
1111111110110000
1111111110000111
1111111111000100
1111111001010000
1111111110011000
1111111101100011
1111101110101100
1111110101000110
0000001111010111
1111100110111111
0000010001010000
0000010011010000
1111111111001001
0000001100010001
0000010000111000
0000010000011011
1111111101101010
1111111001001011
0000001100101000
0000000000101001
1111111110101111
1111111010100101
0000000001010000
1111111111111111
1111111111111111
0000000000000000
0000000000000000
0000000000000000
1111111111111111
0000000000000000
0000000000000000
1111111111111111
1111111111111111
1111111111111111
0000000000000000
0000000000000000
0000000000000000
1111111111111111
0000000000000000
1111111111111111
0000000000000000
0000000000000000
0000000000000000
1111111111111111
1111111111111111
0000000000000000
1111111111111111
0000000000000000
1111111111111111
1111111111111111
1111111111111111
1111111111111111
1111111111111111
1111111111111111
1111111111111111
1111111111111111
1111111111111111
0000000000000000
0000000000000000
1111101010010010
1111100101011011
1111101000100101
1111101101001110
0000100011001010
1111100110101101
1111111110111100
0000001000010010
0000000010100111
1111110010100101
1111101011001101
1111100101011001
0000000011110111
0000000011101110
1111101111010010
0000000110110011
1111111111101001
1111110110101011
1111111111111111
0000000000000000
0000000000000000
1111111111111111
1111111111111111
1111111111111111
1111111111111111
1111111111111111
1111111111111111
0000000000111000
1111111101001100
1111111110000101
0000000001111000
0000000100100000
0000000101111010
1111111111011001
1111111100000100
1111111110011011
1111111110110100
1111110110010110
1111111101010000
0000010101110000
0000011000011001
1111111100010101
0000001010101000
0000001100110000
1111111110011101
0000000111010100
1111111000011010
0000001010001011
0000000100001000
0000000100111100
1111111110110000
0000000110000110
0000000100011110
0000000010110001
1111111111111111
1111111111111111
0000000000000000
1111111111111111
1111111111111111
1111111111111111
0000000000000000
0000000000000000
0000000000000000
0000000000000000
0000000000000000
0000000000000000
0000000000000000
1111111111111111
0000000000000000
0000000000000000
0000000000000000
0000000000000000
1111111011100000
0000010001101011
0000000111110110
1111110110010010
0000000011101011
0000001100100011
1111101010111000
1111111010110111
1111110111101011
0000000000100100
0000010111001110
1111111010111111
1111111100000100
0000001111101111
1111110110001100
1111111000110111
0000000111011101
1111110110001001
1111111010110011
1111111011100000
1111111010011001
1111111101000100
0000010011110000
1111111111101101
1111110111001001
0000000100100110
1111111010110011
1111110100100000
0000001001100100
1111110110001111
1111101010010110
0000011100101110
1111101100101110
1111111011101010
0000001000000010
1111111001100000
1111111111111111
0000000000000000
1111111111111111
1111111111111111
1111111111111111
1111111111111111
1111111111111111
1111111111111111
1111111111111111
1111111111111111
1111111111111111
0000000000000000
0000000000000000
0000000000000000
1111111111111111
1111111111111111
0000000000000000
0000000000000000
0000000000000000
0000000000000000
1111111111111111
1111111111111111
1111111111111111
1111111111111111
0000000000000000
0000000000000000
0000000000000000
0000000000000000
1111111111111111
0000000000000000
1111111111111111
1111111111111111
1111111111111111
1111111111111111
0000000000000000
1111111111111111
1111111010010001
1111111101001110
1111110111101101
0000000101111010
0000000111111001
1111111110101000
0000000001101001
0000000000000000
1111111011000011
0000010001011100
0000011010111010
0000000111100111
0000010111100010
0000011100001010
0000000001110001
0000000010101010
1111111110000010
1111110011001010
1111111111111111
0000000000000000
1111111111111111
0000000000000000
1111111111111111
1111111111111111
1111111111111111
0000000000000000
0000000000000000
0000000010101001
0000000101100111
0000000001010001
1111111110100010
0000000010011101
1111111110011110
1111111110111101
1111111101100110
1111111111001011
1111111000001000
1111111011111010
1111111010101011
1111111111000011
1111101110101111
0000000100101101
1111111101100011
0000000011001110
0000000010011010
1111111100001000
1111101101111110
0000001000100101
1111110111011110
1111101110011100
0000000110011111
1111111011111001
1111110111101010
0000000000001100
0000000000000000
1111111111111111
1111111111111111
0000000000000000
1111111111111111
1111111111111111
1111111111111111
1111111111111111
0000000000000000
0000000000000000
1111111111111111
1111111111111111
0000000000000000
1111111111111111
0000000000000000
0000000000000000
0000000000000000
0000000000000000
0000000110001101
1111110011100010
0000000010101001
1111110001000101
1111000001100111
0000000001001001
1111101010001011
1111111110011101
1111111110110100
0000001110111111
0000001000000100
1111110101111110
0000000100100001
0000010101100100
1111111001100001
0000001101000100
0000000101010100
0000000111001000
0000000101000001
0000000010010110
0000001010011111
0000010001101010
1111101111011101
0000100011000110
0000000000000111
1111110100111110
0000000000000111
0000001111000100
0000010001111001
1111111000001000
1111110000111100
0001000110011101
0000000010011010
1111111000001101
0000000011011101
0000000110111001
1111111111111111
1111111111111111
0000000000000000
1111111111111111
0000000000000000
0000000000000000
1111111111111111
1111111111111111
1111111111111111
1111111111111111
0000000000000000
0000000000000000
1111111111111111
1111111111111111
0000000000000000
0000000000000000
1111111111111111
0000000000000000
1111111111111111
1111111111111111
1111111111111111
0000000000000000
1111111111111111
0000000000000000
0000000000000000
1111111111111111
1111111111111111
0000000000000000
1111111111111111
1111111111111111
0000000000000000
1111111111111111
1111111111111111
0000000000000000
1111111111111111
0000000000000000
0000000111000000
0000010101010010
0000001110110011
1111101111010101
0000011011000111
0000001001111101
1111101001000100
1111111011011011
1111110000110011
1111110111111111
1111111000000010
0000000111001111
1111011101000000
1111111001001011
1111111101010111
1111111001110110
1111110101110000
0000000110000111
1111111111111111
1111111111111111
1111111111111111
1111111111111111
0000000000000000
1111111111111111
1111111111111111
0000000000000000
0000000000000000
0000000101010001
1111111111000011
1111111110011000
0000000010101011
0000000001000110
1111111100110100
0000000111110000
0000000011010001
0000000100101001
0000000100100011
1111101111110010
1111110100111101
0000101110000011
1111011110011110
1111111011101111
0000100011110011
0000000010110000
1111111101010010
1111111010110101
1111100110100010
0000001010100010
1111111111110101
1111000110001000
1111111011101001
0000000001100010
1111110001111001
0000000000010010
0000000000000000
1111111111111111
0000000000000000
1111111111111111
1111111111111111
1111111111111111
0000000000000000
1111111111111111
0000000000000000
1111111111111111
0000000000000000
0000000000000000
0000000000000000
0000000000000000
0000000000000000
1111111111111111
0000000000000000
1111111111111111
1111111001111100
0000001010101101
1111111000010100
0000011100001001
0000010101101100
0000000010100101
0000001110000111
0000001110110101
1111111101000100
1111111011010100
1111111110101110
0000000010010111
0000000101111111
1111111100110111
0000010000100010
1111110110011111
1111111010100011
1111111110110010
1111111110010011
1111111000111010
1111111001111111
1111110010000110
0000011100000111
0000001100110100
0000000111101110
0000000011111001
1111110010000011
1111111011110000
1111111001101000
0000000011010101
0000001011000000
1111110001111000
0000001011010110
1111111010100101
1111011100000110
0000000111100111
1111111111111111
0000000000000000
1111111111111111
1111111111111111
0000000000000000
0000000000000000
0000000000000000
1111111111111111
1111111111111111
1111111111111111
1111111111111111
0000000000000000
0000000000000000
0000000000000000
1111111111111111
1111111111111111
1111111111111111
0000000000000000
1111111111111111
0000000000000000
1111111111111111
1111111111111111
0000000000000000
1111111111111111
1111111111111111
1111111111111111
1111111111111111
1111111111111111
0000000000000000
0000000000000000
1111111111111111
1111111111111111
0000000000000000
1111111111111111
1111111111111111
0000000000000000
1111111010011110
1111111110010001
1111111010000011
0000000101001100
0000001110001010
1111111001000110
1111101011000100
0000000111000000
1111111100011001
1111111100000001
0000000100110110
0000000100110111
1111111010100001
0000011000101011
0000000110011101
0000000101011011
0000011101110110
0000000010111011
0000000000000000
0000000000000000
0000000000000000
0000000000000000
0000000000000000
0000000000000000
0000000000000000
1111111111111111
1111111111111111
1111111111010111
0000000011100010
0000000101110011
1111111010010100
1111111010101100
0000000100110000
1111110111011000
1111111010100001
1111111111111101
1111111000111101
0000001010010011
1111111101001010
1111110100000101
0000000000011101
1111111011110011
1111110000101101
0000011010100000
1111110100011101
0000000010100110
0000001110101010
0000000000101110
1111100011110011
0000010000010000
1111011010010111
1111111011000110
0000010010010000
1111101111101101
0000000000000000
1111111111111111
0000000000000000
0000000000000000
0000000000000000
1111111111111111
1111111111111111
0000000000000000
0000000000000000
0000000000000000
0000000000000000
1111111111111111
1111111111111111
0000000000000000
0000000000000000
0000000000000000
0000000000000000
0000000000000000
1111111111111111
0000000000000000
0000000000000000
0000000000000000
0000000000000000
0000000000000000
0000000000000000
1111111111111111
1111111111111111
0000000000000000
0000000000000000
1111111111111111
1111111111111111
0000000000000000
1111111111111111
1111111111111111
1111111111111111
1111111111111111
0000000000000000
1111111111111111
0000000000000000
0000000000000000
0000000000000000
0000000000000000
0000000000000000
0000000000000000
0000000000000000
0000000000000000
0000000000000000
0000000000000000
1111111111111111
0000000000000000
0000000000000000
0000000000000000
1111111111111111
0000000000000000
1111111111111111
0000000000000000
0000000000000000
1111111111111111
0000000000000000
1111111111111111
0000000000000000
1111111111111111
0000000000000000
0000000000000000
1111111111111111
1111111111111111
1111111111111111
0000000000000000
0000000000000000
0000000000000000
0000000000000000
1111111111111111
0000000000000000
0000000000000000
0000000000000000
0000000000000000
1111111111111111
0000000000000000
0000000000000000
0000000000000000
0000000000000000
0000000000000000
0000000000000000
1111111111111111
0000000000000000
0000000000000000
1111111111111111
0000000000000000
0000000000000000
0000000000000000
0000000000000000
1111111111111111
1111111111111111
0000000000000000
0000000000000000
0000000000000000
1111111111111111
1111111111111111
1111111111111111
1111111111111111
1111111111111111
1111111111111111
1111111111111111
0000000000000000
0000000000000000
0000000000000000
1111111111111111
1111111111111111
1111111111111111
1111111111111111
0000000000000000
0000000000000000
1111111111111111
0000000000000000
0000000000000000
0000000000000000
1111111111111111
1111111111111111
0000000000000000
1111111111111111
0000000000000000
1111111111111111
1111111111111111
1111111111111111
0000000000000000
0000000000000000
1111111111111111
1111111111111111
0000000000000000
1111111111111111
1111111111111111
1111111111111111
0000000000000000
1111111111111111
0000000000000000
0000000000000000
0000000000000000
0000000000000000
1111111111111111
0000000000000000
0000000000000000
0000000000000000
0000000000000000
1111111111111111
1111111111111111
0000000000000000
0000000000000000
1111111111111111
0000000000000000
0000000000000000
1111111111111111
0000000000000000
1111111111111111
0000000000000000
1111111111111111
1111111111111111
1111111111111111
1111111111111111
1111111111111111
0000000000000000
0000000000000000
0000000000000000
0000000000000000
0000000000000000
1111111111111111
0000000000000000
1111111111111111
0000000000000000
0000000000000000
0000000000000000
0000000000000000
1111111111111111
1111111111111111
1111111111111111
0000000000000000
0000000000000000
1111111111111111
1111111111111111
1111111111111111
0000000000000000
1111111111111111
1111111111111111
1111111111111111
1111111111111111
0000000000000000
1111111111111111
1111111111111111
1111111111111111
1111111111111111
1111111111111111
0000000000000000
1111111111111111
1111111111111111
0000000000000000
1111111111111111
1111111111111111
1111111111111111
1111111111111111
0000000000000000
1111111111111111
1111111111111111
0000000000000000
1111111111111111
0000000000000000
1111111111111111
0000000000000000
1111111111111111
1111111111111111
0000000000000000
0000000000000000
1111111111111111
1111111111111111
0000000000000000
1111111111111111
1111111111111111
1111111111111111
1111111111111111
1111111111111111
0000000000000000
1111111111111111
1111111111111111
0000000000000000
0000000000000000
1111111111111111
0000000000000000
1111111111111111
1111111111111111
1111111111111111
0000000000000000
0000000000000000
0000000000000000
0000000000000000
0000000000000000
1111111111111111
1111111111111111
1111111111111111
1111111111111111
1111111111111111
0000000000000000
1111111111111111
1111111111111111
1111111111111111
1111111111111111
1111111111111111
1111111111111111
1111111111111111
1111111111111111
1111111111111111
1111111111111111
1111111111111111
1111111111111111
1111111111111111
1111111111111111
1111111111111111
1111111111111111
1111111111111111
0000000000000000
0000000000000000
1111111111111111
0000000000000000
0000000000000000
1111111111111111
1111111111111111
1111111111111111
0000000000000000
1111111111111111
1111111111111111
0000000000000000
0000000000000000
1111111111111111
0000000000000000
0000000000000000
1111111111111111
1111111111111111
1111111111111111
0000000000000000
0000000000000000
0000000000000000
0000000000000000
0000000000000000
0000000000000000
0000000000000000
0000000000000000
1111111111111111
0000000000000000
0000000000000000
0000000000000000
1111111111111111
0000000000000000
1111111111111111
1111111111111111
0000000000000000
1111111111111111
0000000000000000
1111111111111111
0000000000000000
1111111111111111
0000000000000000
0000000000000000
0000000000000000
1111111111111111
0000000000000000
0000000000000000
1111111111111111
0000000000000000
0000000000000000
0000010010101100
0000001100011101
0000011001010010
1111101010001101
1111101010110001
1111111001111000
0000000110011001
0000000000000011
0000011010100011
1111110101100110
1111111111110110
0000010000100111
1111101111100001
1111101100110011
0000011001100100
1111110110100010
0000000011100011
0000010100001101
0000001110101100
1111111001011111
0000010010101010
1111101101100101
1111111110100001
0000001100101110
1111111100011001
1111101110011111
0000010001001100
1111100000010100
1111110110111011
0000001110000101
1111011000010101
0000001110111011
0000011110011110
1111011110000101
0000000000100100
0000001001010000
1111111111111111
1111111111111111
1111111111111111
0000000000000000
1111111111111111
0000000000000000
1111111111111111
1111111111111111
0000000000000000
1111111111111111
0000000000000000
1111111111111111
0000000000000000
0000000000000000
0000000000000000
0000000000000000
0000000000000000
1111111111111111
0000000000000000
0000000000000000
0000000000000000
1111111111111111
1111111111111111
0000000000000000
0000000000000000
1111111111111111
1111111111111111
0000000000000000
1111111111111111
1111111111111111
0000000000000000
1111111111111111
1111111111111111
1111111111111111
0000000000000000
1111111111111111
0000010011101100
1111110001010010
0000011100011111
1111110100000011
1111101100100010
0000000111000011
0000001011100010
1111100111101011
0000011110010110
0000010000100000
0000000001001100
0000011011110110
1111111100100100
0000001010110100
1111111100011111
0000001011011101
1111111011010111
0000010011111000
0000000000000000
1111111111111111
0000000000000000
0000000000000000
0000000000000000
0000000000000000
0000000000000000
1111111111111111
0000000000000000
0000000011001111
0000000000101011
0000001100000011
1111111000000000
1111111111000110
0000001100000000
1111110101000001
1111111000010001
0000000011011101
1111110001011000
1111111101110011
0000001100111011
1111100011101001
0000011110000010
0000100110100101
1111011011110110
1111111001000110
0000010100111011
1111110100010111
1111110111111000
0000000110001000
1111101010010110
0000101111101100
0000011111100101
1111100101011100
1111110100101000
0000010111100001
0000000000000000
0000000000000000
0000000000000000
0000000000000000
1111111111111111
1111111111111111
1111111111111111
0000000000000000
0000000000000000
0000000000000000
0000000000000000
1111111111111111
1111111111111111
1111111111111111
1111111111111111
0000000000000000
0000000000000000
0000000000000000
1111101101100100
0000000110010000
1111111110001100
1111111000010000
0000111110010110
0000001000100011
1111110111011100
0000000100101001
1111111110111011
1111100110011001
0000001100000101
1111101011011010
1111111000010011
0000110111011001
0000011010011110
1111101100000111
0000001010110000
1111111011101111
1111101001100110
1111110101011010
1111110000110010
1111111001001101
0001010000011001
0000010101000001
1111110010100010
1111111011110110
1111110001010011
1111110110101011
1111111000100010
1111110001001101
1111101100001001
0000011110111000
0000000011100101
1111111110110111
1111100111101111
1111111010100110
1111111111111111
0000000000000000
1111111111111111
1111111111111111
1111111111111111
0000000000000000
0000000000000000
0000000000000000
1111111111111111
0000000000000000
1111111111111111
0000000000000000
1111111111111111
0000000000000000
1111111111111111
1111111111111111
1111111111111111
1111111111111111
0000000000000000
1111111111111111
0000000000000000
1111111111111111
0000000000000000
0000000000000000
0000000000000000
1111111111111111
0000000000000000
1111111111111111
1111111111111111
1111111111111111
0000000000000000
1111111111111111
0000000000000000
1111111111111111
1111111111111111
0000000000000000
1111110111001111
0000001010011110
1111110100011011
1111111100011000
0001000101001010
1111110111010001
1111101111000100
0000011110111110
1111111100110000
1111111001000110
1111111101000111
1111110110010100
0000011001111100
0001000100100001
0000011110001011
1111111001110100
0000001010011110
1111111101110001
1111111111111111
0000000000000000
1111111111111111
0000000000000000
1111111111111111
0000000000000000
1111111111111111
0000000000000000
1111111111111111
1111101101101010
1111110100010011
1111110011001100
1111110001110000
0000100011101110
0000001000100111
1111110110111111
0000000100111101
0000000010010101
1111100100101011
1111111010001000
1111110101011110
0000000001011010
0000010100011010
0000000101011001
1111110011010101
0000011010010011
1111111100111101
1111101000010110
1111101100110011
1111111000100110
1111110011010000
0000100100111111
1111110110110111
1111110101101000
0000000000011101
1111110010001101
0000000000000000
0000000000000000
1111111111111111
1111111111111111
0000000000000000
0000000000000000
0000000000000000
1111111111111111
0000000000000000
1111111111111111
0000000000000000
1111111111111111
0000000000000000
0000000000000000
0000000000000000
1111111111111111
0000000000000000
1111111111111111
1111111101100101
1111101100001100
1111111000000010
0000001000101010
0000010111111111
0000000100010011
1111110000001011
1111111101000010
1111110101101011
0000000100110001
1111110110110111
1111110101100001
0000000010101101
0000000111101001
0000000100110100
0000000000010111
1111111000001111
0000000001001101
1111111111100111
1111101110000101
1111110111100100
0000110011010011
0000100001011001
0000010001101110
1111110110000110
1111110101010001
1111111111111111
0000000010110101
1111111110100010
1111110111010010
1111111011011111
0000000011011100
0000000010011111
1111110010001100
1111110101100001
1111111111110001
0000000000000000
0000000000000000
1111111111111111
1111111111111111
0000000000000000
0000000000000000
1111111111111111
1111111111111111
1111111111111111
1111111111111111
1111111111111111
0000000000000000
0000000000000000
1111111111111111
0000000000000000
1111111111111111
1111111111111111
0000000000000000
0000000000000000
1111111111111111
0000000000000000
0000000000000000
1111111111111111
0000000000000000
1111111111111111
0000000000000000
0000000000000000
1111111111111111
0000000000000000
0000000000000000
0000000000000000
1111111111111111
1111111111111111
0000000000000000
1111111111111111
1111111111111111
1111111111101110
0000011011011100
1111110110001010
1111111000111001
0000001001011100
1111110100000101
0000001110000101
0000011001111000
1111111000001010
1111101100110110
0000000000110100
1111110001010110
1111111011110100
0000010001000001
1111111110010011
1111110011111011
1111110000110110
1111111000110010
0000000000000000
1111111111111111
0000000000000000
1111111111111111
0000000000000000
0000000000000000
1111111111111111
0000000000000000
0000000000000000
1111111101100010
1111111011101000
1111111111111101
1111111110011111
0000000001110011
0000000011010101
0000000000011110
0000000000000100
0000000001101010
1111111001000111
1111111000011011
1111111110111001
0000000100000111
1111111001100000
1111111010111000
0000001100011101
0000000100110001
0000000110101000
1111101111101011
0000001001000011
0000000101101101
1111111110111111
1111111001111011
1111111101010000
1111110111100111
0000000010111010
1111111110111100
0000000000000000
0000000000000000
1111111111111111
1111111111111111
0000000000000000
0000000000000000
0000000000000000
1111111111111111
1111111111111111
0000000000000000
0000000000000000
0000000000000000
0000000000000000
1111111111111111
1111111111111111
0000000000000000
1111111111111111
0000000000000000
1111111111111111
1111111111111111
1111111111111111
1111111111111111
1111111111111111
1111111111111111
1111111111111111
1111111111111111
1111111111111111
1111111111111111
0000000000000000
0000000000000000
1111111111111111
1111111111111111
1111111111111111
1111111111111111
1111111111111111
1111111111111111
1111111111111111
1111111111111111
1111111111111111
1111111111111111
0000000000000000
1111111111111111
1111111111111111
1111111111111111
1111111111111111
0000000000000000
0000000000000000
0000000000000000
1111111111111111
0000000000000000
0000000000000000
0000000000000000
0000000000000000
0000000000000000
1111111111111111
1111111111111111
1111111111111111
1111111111111111
0000000000000000
0000000000000000
0000000000000000
1111111111111111
0000000000000000
1111111111111111
0000000000000000
0000000000000000
0000000000000000
0000000000000000
0000000000000000
0000000000000000
0000000000000000
1111111111111111
1111111111111111
1111111111111111
1111111111111111
1111111111111111
1111111111111111
0000000000000000
1111111111111111
1111111111111111
0000000000000000
1111111111111111
1111111111111111
1111111111111111
1111111111111111
0000000000000000
0000000000000000
0000000000000000
1111111111111111
1111111111111111
1111111111111111
1111111111111111
1111111111111111
0000000000000000
1111111111111111
1111111111111111
1111111111111111
1111111111111111
0000000000000000
1111111111111111
1111111111111111
1111111111111111
1111111111111111
1111111111111111
1111111111111111
1111111111111111
1111111111111111
1111111111111111
0000000000000000
0000000000000000
0000000000000000
0000000000000000
0000000000000000
1111111111111111
0000000000000000
1111111111111111
1111111111111111
1111111111111111
1111111111111111
1111111111111111
1111111111111111
0000000000000000
1111111111111111
1111111111111111
1111111111111111
1111111111111111
1111111111111111
1111111111111111
1111111111111111
1111111111111111
0000000000000000
0000000000000000
1111111111111111
0000000000000000
0000000000000000
0000000000000000
0000000000000000
1111111111111111
1111111111111111
0000000000000000
1111111111111111
1111111111111111
1111111111111111
1111111111111111
0000000000000000
1111111111111111
1111111111111111
0000000000000000
0000000000000000
1111111111111111
0000000000000000
0000000000000000
1111111111111111
1111111111111111
0000000000000000
0000000000000000
0000000000000000
0000000000000000
0000000000000000
0000000000000000
0000000000000000
0000000000000000
0000000000000000
0000000000000000
1111111111111111
0000000000000000
0000000000000000
0000000000000000
1111111111111111
1111111111111111
1111111111111111
0000000000000000
1111111111111111
0000000000000000
0000000000000000
1111111111111111
0000000000000000
0000000000000000
0000000000000000
0000000000000000
1111111111111111
1111111111111111
0000000000000000
1111111111111111
0000000000000000
1111111111111111
1111111111111111
1111111111111111
1111111111111111
1111111111111111
0000000000000000
1111111111111111
0000000000000000
1111111111111111
1111111111111111
1111111111111111
1111111111111111
1111111111111111
1111111111111111
1111111111111111
1111111111111111
1111111111111111
1111111111111111
0000000000000000
1111111111111111
1111111111111111
1111111111111111
0000000000000000
1111111111111111
1111111111111111
0000000000000000
0000000000000000
0000000000000000
1111111111111111
0000000000000000
1111111111111111
0000000000000000
1111111111111111
0000000000000000
1111111111111111
1111111111111111
1111111111111111
0000000000000000
0000000000000000
1111111111111111
0000000000000000
1111111111111111
1111111111111111
1111111111111111
1111111111111111
1111111111111111
0000000000000000
0000000000000000
0000000000000000
0000000000000000
1111111111111111
0000000000000000
0000000000000000
0000000000000000
0000000000000000
0000000000000000
1111111111111111
0000000000000000
0000000000000000
0000000000000000
0000000000000000
0000000000000000
0000000000000000
0000000000000000
0000000000000000
0000000000000000
0000000000000000
0000000000000000
0000000000000000
0000000000000000
1111111111111111
1111111111111111
1111111111111111
0000000000000000
0000000000000000
1111111111111111
0000000000000000
0000000000000000
0000000000000000
0000000000000000
0000000000000000
0000000000000000
0000000000000000
0000000000000000
0000000000000000
0000000000000000
0000000000000000
0000000000000000
0000000000000000
0000000000000000
0000000000000000
1111111111111111
1111111111111111
0000000000000000
0000000000000000
0000000000000000
0000000000000000
0000000000000000
0000000000000000
1111111111111111
1111111111111111
1111111111111111
0000000000000000
0000000000000000
0000000000000000
1111111111111111
0000000000000000
1111111111111111
1111111111111111
0000000000000000
0000000000000000
0000000000000000
1111111111111111
0000000000000000
0000000000000000
1111111111111111
0000000000000000
0000000000000000
1111111111111111
0000000000000000
0000000000000000
1111110111101011
0000000011011100
1111110111000011
0000010100110011
0000101000101010
0000010100111100
1111111110010011
1111111101010001
0000000001011000
1111101111110001
1111111111010110
0000000110111001
1111111001100100
0000011111010101
0000000001010010
1111111011110001
0000000111011011
1111111010000000
1111110110011001
0000001110111111
1111111010110011
1111111010011110
0000101000000110
1111111011101101
1111110010110001
0000011111101101
1111111011010100
1111101100001001
1111110000000010
1111111100011011
1111111110100110
0000010110111100
0000000000000010
1111101100011100
1111110111100110
1111110110101110
0000000000000000
0000000000000000
0000000000000000
0000000000000000
0000000000000000
0000000000000000
0000000000000000
0000000000000000
0000000000000000
1111111111111111
0000000000000000
0000000000000000
1111111111111111
0000000000000000
1111111111111111
0000000000000000
1111111111111111
1111111111111111
1111111111111111
0000000000000000
1111111111111111
1111111111111111
0000000000000000
0000000000000000
1111111111111111
0000000000000000
1111111111111111
0000000000000000
1111111111111111
0000000000000000
0000000000000000
0000000000000000
1111111111111111
0000000000000000
0000000000000000
1111111111111111
1111110101110000
1111110100101000
1111110100001100
0000001001010000
0001000100101000
0000011010001011
1111110111111011
1111110111101110
1111110101001001
1111111011000110
0000001101110001
1111111111000101
1111111001101001
0001000101111100
1111111111011000
1111111000010111
0000000111101110
1111111011101010
1111111111111111
1111111111111111
0000000000000000
1111111111111111
1111111111111111
0000000000000000
1111111111111111
0000000000000000
1111111111111111
1111110110000010
1111110110001010
1111111111110001
1111110111111101
0000010011001011
1111111111110110
1111111110100110
1111111010000110
0000000001000001
1111101111111011
1111110100111111
1111110100010100
1111110010010001
1111110111111101
1111110111110000
0000000001010000
1111111110010110
1111110100101111
1111110001111011
0000000111000000
1111100001110100
1111110100001111
0000011100111101
0000001000110001
1111110001100001
0000000000101110
1111111101000111
0000000000000000
1111111111111111
1111111111111111
0000000000000000
1111111111111111
0000000000000000
1111111111111111
1111111111111111
1111111111111111
0000000000000000
0000000000000000
1111111111111111
1111111111111111
0000000000000000
0000000000000000
0000000000000000
1111111111111111
0000000000000000
0000000010100101
1111111100111100
0000001101010101
1111110010000011
0000010011110110
0000000001110010
1111111110000110
0000000010101001
0000001101010111
1111101110110111
1111101001110111
1111101001100001
1111101101101101
1111100101010100
1111101010000101
1111110000110011
1111101000100111
1111100011111101
0000001011110000
0000000110111010
0000001000110001
1111111011000001
0000001101111101
1111110110011100
1111111110111001
1111110000111000
1111111111000010
1111111011010011
0000000011000011
0000000100001011
1111111011000100
0000010011001101
0000010111100011
1111111100111110
0000001000000100
0000000010101110
0000000000000000
0000000000000000
1111111111111111
0000000000000000
0000000000000000
0000000000000000
1111111111111111
0000000000000000
1111111111111111
0000000000000000
1111111111111111
0000000000000000
1111111111111111
0000000000000000
0000000000000000
0000000000000000
1111111111111111
0000000000000000
1111111111111111
1111111111111111
0000000000000000
1111111111111111
0000000000000000
0000000000000000
0000000000000000
0000000000000000
1111111111111111
0000000000000000
1111111111111111
1111111111111111
1111111111111111
0000000000000000
0000000000000000
1111111111111111
1111111111111111
0000000000000000
1111111110010000
1111110111001101
1111111101100110
1111111010101011
1111110111100001
1111110110100101
0000001100011000
0000001000001111
0000000010010000
0000010110101001
1111111101110110
0000000100111101
0000010001011011
0000000011110100
0000000000001000
0000001111100011
0000000100110001
0000001111000011
1111111111111111
0000000000000000
0000000000000000
0000000000000000
0000000000000000
1111111111111111
1111111111111111
0000000000000000
0000000000000000
1111110011000000
1111100001011000
1111111100010110
1111011000010100
1110110110111100
1111110101111100
1111110111001011
1111101101101010
1111111110101111
0000000100010100
0000001010101100
0000000010011010
0000011111000101
0001011101001111
0000010101101010
0000001000100101
0000011100001111
0000001001100001
1111110101000010
1111100100010110
1111010110111000
0000000000000101
0000001010100011
1111011011101100
1111111110100000
1111110010011110
1111101101110111
0000000000000000
1111111111111111
1111111111111111
0000000000000000
1111111111111111
0000000000000000
0000000000000000
1111111111111111
0000000000000000
0000000000000000
0000000000000000
0000000000000000
1111111111111111
1111111111111111
0000000000000000
0000000000000000
0000000000000000
1111111111111111
1111111111111111
1111111111111111
1111111111111111
1111111111111111
1111111111111111
0000000000000000
1111111111111111
1111111111111111
1111111111111111
1111111111111111
1111111111111111
1111111111111111
1111111111111111
1111111111111111
1111111111111111
1111111111111111
0000000000000000
1111111111111111
1111111111111111
1111111111111111
1111111111111111
0000000000000000
1111111111111111
1111111111111111
1111111111111111
1111111111111111
1111111111111111
1111111111111111
1111111111111111
1111111111111111
1111111111111111
0000000000000000
0000000000000000
0000000000000000
1111111111111111
0000000000000000
1111111111111111
0000000000000000
0000000000000000
0000000000000000
1111111111111111
0000000000000000
0000000000000000
0000000000000000
0000000000000000
1111111111111111
0000000000000000
0000000000000000
1111111111111111
0000000000000000
1111111111111111
1111111111111111
0000000000000000
0000000000000000
1111111111111111
1111111111111111
0000000000000000
0000000000000000
0000000000000000
0000000000000000
1111111111111111
0000000000000000
0000000000000000
0000000000000000
0000000000000000
1111111111111111
1111111111111111
1111111111111111
0000000000000000
0000000000000000
1111111111111111
1111111111111111
1111111111111111
1111111111111111
0000000000000000
1111111111111111
1111111111111111
1111111111111111
1111111111111111
1111111111111111
0000000000000000
1111111111111111
1111111111111111
0000000000000000
1111111111111111
1111111111111111
1111111111111111
1111111111111111
1111111111111111
0000000000000000
0000000000000000
0000000000000000
0000000000000000
1111111111111111
0000000000000000
0000000000000000
0000000000000000
1111111111111111
1111111111111111
1111111111111111
1111111111111111
1111111111111111
1111111111111111
1111111111111111
1111111111111111
1111111111111111
0000000000000000
1111111111111111
0000000000000000
0000000000000000
0000000000000000
0000000000000000
1111111111111111
1111111111111111
1111111111111111
1111111111111111
1111111111111111
0000000000000000
0000000000000000
0000000000000000
0000000000000000
0000000000000000
0000000000000000
1111111111111111
1111111111111111
1111111111111111
1111111111111111
1111111111111111
1111111111111111
0000000000000000
1111111111111111
0000000000000000
1111111111111111
1111111111111111
1111111111111111
1111111111111111
0000000000000000
0000000000000000
1111111111111111
0000000000000000
0000000000000000
1111111111111111
1111111111111111
0000000000000000
1111110100001000
1111110101010111
1111111010101100
0000010000001000
0000010100010110
0000001001001001
1111110100110111
1111111011010010
1111111001101101
1111110111011001
1111111001011010
1111110011111111
0000000011011001
0000010101100000
1111111111110110
1111111111010111
0000000001111111
1111111111111100
1111110111000010
1111111110000011
1111111101000111
0000001000101000
0000100111001101
0000000100111011
0000000000000110
0000011000011011
0000000001000111
1111110010100110
1111101000100010
1111110110001110
0000010100110111
0000010101110110
0000000000111111
1111110000100001
1111101000000010
1111111001100011
1111111111111111
0000000000000000
0000000000000000
1111111111111111
1111111111111111
1111111111111111
0000000000000000
1111111111111111
1111111111111111
0000000000000000
0000000000000000
1111111111111111
1111111111111111
0000000000000000
0000000000000000
0000000000000000
0000000000000000
0000000000000000
1111111111111111
0000000000000000
0000000000000000
1111111111111111
0000000000000000
0000000000000000
0000000000000000
1111111111111111
0000000000000000
1111111111111111
0000000000000000
0000000000000000
0000000000000000
1111111111111111
0000000000000000
1111111111111111
1111111111111111
1111111111111111
1111111101010001
0000001110010000
0000000010110101
0000010001001000
0000100100101011
0000001000111100
1111110011110110
1111110010001010
1111101111111111
1111110001100010
1111101111100010
1111110110000111
1111110111111010
0000100100011111
0000001011111000
1111110110011100
1111110001110111
1111110000101011
0000000000000000
0000000000000000
1111111111111111
1111111111111111
1111111111111111
1111111111111111
1111111111111111
1111111111111111
0000000000000000
1111111010001000
1111111000000100
1111111011001100
1111111100101111
0000000001100011
0000000000111001
0000000011101101
0000000000100110
0000000010011101
1111111110111010
0000000100010101
0000000000011110
1111110001110011
1111110000110010
