0000111001101100
0000111111111010
0000111001010010
0001001000010100
0001001101111111
0001000110101010
0001000001000100
0001001000100111
0001000001111111
0000001001100011
0000000001011000
0000000111010001
0000000010011010
1111110110101101
1111111101010110
0000000111111100
1111111100111111
0000000010011110
1110111111101110
1110111001110110
1111000100010011
1110110101110001
1110101001111010
1110110100111100
1110111101011100
1110110010110001
1110111011000010
1111100111110111
1111101110000111
1111101100010100
1111011100011010
1111100110000000
1111101100111001
1111011000000101
1111100010001010
1111101010000001
1111110011000100
1111110111101111
1111111001110010
1111100111111111
1111110001111111
1111111110000011
1111100101010010
1111101111011000
1111111100100000
0000011111001110
0000110001001000
0000101101001100
0000011000000001
0000101111101010
0000110110001010
0000000010110011
0000010110010110
0000011110110010
0000010110101001
0000010110001001
0000010100011001
1111111110111011
1111011101110100
0000000000001011
1111110101110011
1111001010101010
1111110101110001
0000010000100110
0000001011100010
0000001100001101
1111101101111110
1111000110000010
1111101101000010
1111100001001100
1110101110110001
1111011111101010
0000010111001011
0000010001101100
0000010101111011
1111110011101101
1111001010001000
1111110101111100
1111101001010101
1110110100101010
1111101010010000
0000000000111000
1111110010000001
1111101101111110
0000001001110010
1111111101110010
1111101111010011
0000001110000110
0000001110001110
0000000010010110
0000000100001101
1111110111010001
1111110100011110
0000001011010011
0000000001011010
1111110100011111
0000001110011000
0000010000011100
0000000110011011
0000000001001011
1111110101100001
1111110011110000
0000000111000100
1111111110001111
1111110010101011
0000001001000000
0000001011110010
0000000011000011
0000000010111111
0000000110010100
0000000111100110
1111111011001001
1111111010000011
1111111010011100
1111110100011101
1111101011100111
1111101110111010
0000000001110101
0000000000010101
1111111111011100
1111111011101101
1111110101101111
1111110011010101
1111110101011101
1111100111110111
1111101000011010
0000010011101011
0000010100101011
0000010000011111
0000011000001001
0000010110011101
0000010001000111
0000010000101111
0000001000000100
0000000110111101
1111101101101001
1111101011001111
1111100111100010
0000000111001001
0000001111101101
0000000000001100
0000010010001111
0000100000100011
0000010000010100
1111110111111010
1111110111001000
1111110100011110
0000001111111000
0000011001110100
0000001011100010
0000011010011110
0000101001010101
0000011010001101
1111110101011011
1111110110001111
1111110100010011
0000001001100011
0000010100100011
0000000111111001
0000010001000001
0000100000101101
0000010011100011
1111101110100101
1111100011011000
1111101011001011
1111100100100110
1110111111100111
1111011000111000
1111101100000000
1111010001011100
1111100010100011
1111101100110010
1111010011010011
1111011101010101
1111011001101100
1110100110000000
1111000011100001
1111101010000101
1111000010110101
1111011001010110
1111101000100111
1111001100100011
1111011011111000
1111010011000101
1110011010110000
1110111110010100
1111100110011100
1110111010111101
1111010110101101
0000000010011011
0000000110011111
0000000010011100
0000000000010100
0000000011111001
1111111111110111
1111111001111111
1111111010111100
1111110111111010
0000000101011100
0000001010001110
0000000101111100
0000000100010000
0000001000100110
0000000100010010
1111111101110011
1111111111011011
1111111100001010
0000000101001001
0000001010110000
0000000111001011
0000000100111100
0000001010010101
0000000110110100
1111111111001010
0000000001111101
1111111111011011
1111110001111100
0000001100001111
0000000000110101
0000101000110011
0000100000001110
1110111111001010
0001000001010101
0000001111011000
1110100111010101
1111111001111001
0000001101111110
1111111010111101
0000101111111101
0000100000010111
1110110110111001
0001000111001010
0000001110011001
1110011111000100
1111111010111111
0000001101101100
1111111000000011
0000110011000000
0000100001000011
1110110011001101
0001001011100110
0000010000011010
1110011100001001
1111110110100111
0000000011101011
0000000101111100
1111101111011010
0000000010111010
0000001001110000
1111100111000111
1111110101110001
1111111110111011
0000000001101001
0000010000001100
0000010011000111
1111111100010010
0000010001000011
0000011000000000
1111110011010100
0000000010111111
0000001100001111
0000000111110110
0000010110100010
0000010111001100
0000000011011101
0000011000011010
0000011100111100
1111111000111011
0000001000010100
0000001111010000
0000000001111111
0000000010100111
1111111001110101
0000011101100101
0000001110101000
1111010100011111
0000011110101001
0000001110001101
1111010001110010
0000000111110110
0000000011101010
1111110101010001
0000100011001100
0000001110101010
1111001110001000
0000100011110011
0000001110000100
1111001011111011
0000001000101100
0000000011111000
1111110011111001
0000100100111000
0000001111000110
1111001011111111
0000100101101110
0000001110111101
1111001010001101
1111010101100001
1111100100011000
1111110001010110
1111010011001101
1111101101010000
1111111110111011
1111011011110010
1111110010111011
0000000001000000
1111101100101000
1111111011110010
0000001010000010
1111101111000101
0000001000101001
0000011010001000
1111111000010011
0000001101101100
0000011011000101
0000010101010010
0000100100010010
0000100111110110
0000010000100001
0000101000010010
0000101101110101
0000001001000011
0000011001000101
0000011010111000
0000101001100100
0000110110001110
0000110100101111
0000101111000001
0000111001001101
0000111001010001
0000101011111011
0000110010011110
0000110010111101
1111011010001001
1111010110111111
1111010110010101
1111010000100100
1111001001101101
1111001010110010
1111010011100010
1111001010001011
1111001011001101
0000000000111011
1111111101011001
1111111101001000
0000000001011110
1111111101010001
1111111110110000
0000000110010111
0000000011010101
0000000100010111
0000001010101101
1111110001100011
1111101000010110
0000010000010100
1111110111011101
1111100010010010
0000001100010101
0000000110001010
1111110100100100
0000010100001001
1111111000111110
1111101101001010
0000011001111000
1111111111000100
1111100111000001
0000010110010101
0000001111000000
1111111011001101
0000010001110111
1111111001100011
1111101111011100
0000010101001010
1111111100111011
1111100110100111
0000001110000101
0000001000111011
1111110110110001
1111011110111001
1110010011000100
1110011100100001
0000110110000101
0010110101000011
0010110110111100
1111101011101000
1110110010011110
1110101111000000
1111011010011100
1110001110000101
1110010011110100
0000110111111110
0010111011000110
0010111001010010
1111101111010110
1110111000010100
1110110001111010
1111010110100111
1110000101100011
1110001111101000
0000111101001111
0010111011110101
0010111111010111
1111110000000110
1110110101110100
1110110101001011
1111011100001101
1111011000001100
1111011010100111
1111010111010101
1111010010010000
1111010011010111
1111100001100110
1111011101000010
1111011110101010
0000011000000101
0000010100101110
0000010011000000
0000011001001111
0000010101001011
0000010010000010
0000011101110110
0000011000111110
0000010111001110
0000010011001111
0000011101111010
0000100000001000
0000010011110011
0000011110111010
0000011111100111
0000001100010100
0000010100111011
0000010110101011
1111110001000110
1111101101011010
1111100101111001
1111100001100110
1111011100100111
1111010100011101
1111010001001010
1111001001010011
1111000010110101
0001001010011100
0001011010100011
0001011100011110
0001011000011101
0001101100001110
0001101011101101
0001010100101101
0001100111101110
0001100110011100
1111000101010001
1110110110010010
1110111000100110
1111000101100010
1110111010111011
1110111101000011
1111010111101111
1111010001000000
1111010010011101
1111110010000001
1111110000001011
1111101101011001
1111110100001011
1111110001011011
1111110000010011
1111111001000111
1111111000111111
1111111001110001
1111111100000010
1111111010011111
1111110111101110
1111111111001011
1111111100100011
1111111011101000
0000000100000011
0000000011100000
0000000100111010
0000010101100100
0000011010010011
0000010110100111
0000001101000110
0000001110010000
0000001011101000
0000000000111000
0000000000001111
1111111111011101
1111111010011101
0000000101000101
0000001011101111
1111101110101000
1111110011010101
1111111000001111
1111101111101100
1111110001010000
1111110111011000
1110110101000101
1110101011100110
1110110011010010
1110101000110110
1110011100111010
1110100000010100
1110110011000010
1110101000000100
1110101010011111
0001000110100000
0001001101100100
0000111110100110
0001100110100010
0001110100000111
0001100000011000
0001010110010111
0001100101001100
0001010101000110
0000101100111110
0000110001110111
0000101010000111
0000110000100001
0000111011111001
0000110110001011
0000100111011010
0000110011001110
0000110001000001
1111111101001001
1111111010011010
1111111001100101
1111110011001111
1111110101000001
1111110110111110
1111101110101010
1111110000001111
1111110100110110
1111100100100101
1111100001101000
1111100011111010
1111011000101111
1111011001011110
1111011110000100
1111010110110001
1111011000011011
1111011110010010
0000010101001100
0000100011100110
0000010100011011
0000101001111000
0001000111011100
0000101010000100
0000011111010100
0000111000100110
0000011110011110
0000011001101100
0000101010000101
0000100110101110
0000100110111011
0001000101100010
0000110101000110
0000100010010001
0000111100001010
0000101101101110
1111101001101011
1111111000011000
1111110110000111
1111110011001001
0000001111001111
0000000001000010
1111110000000101
0000000111111111
1111111011011100
1111110001111101
1111111001000111
0000000010000110
1111111010101101
0000001011000110
0000010000101000
0000000011000001
0000010001100100
0000010001101111
1111111011111010
0000000010011010
0000001101010111
0000000010011101
0000010001011011
0000011000101110
0000001011101001
0000011000011100
0000011001111010
1111101010010100
1111110000010010
1111111011001111
1111101111010111
1111111101001111
0000000100111110
1111111000010000
0000000100001110
0000000110100100
1111110001111000
0000011011010111
1111110110100011
1110011001110111
0010111001101111
1110100111011001
1110011100100001
0011000100101100
1110011101011000
1111101011100000
0000100000111110
1111110110111000
1110010011100001
0011000010001110
1110101000000001
1110010110101110
0011001101011101
1110011110110001
1111101000011110
0000100101101010
1111111000000100
1110001100111010
0011000100011000
1110100101111111
1110010001100011
0011010001011100
1110011101101100
0001011001110000
1101010110101101
0001001111011110
0001101010001100
1100100011011000
0001110110000110
0000011101011011
1110101110000100
0000101110000111
0001011011110000
1101001101000101
0001010101001000
0001101101001000
1100011001111110
0001111100111100
0000100010000101
1110101001100010
0000110110011110
0001011101100100
1101001100011000
0001010101001001
0001101101000000
1100010111001000
0001111011110001
0000100001111100
1110101000000011
0000110101110000
0000011011100000
0000010001100010
0000010010000000
0000011010010011
0000000111000100
0000001001111011
0000010100011000
0000000111100100
0000001011010010
0000000110111111
1111111001001001
1111111100111101
1111111111011101
1111100111101011
1111101110101101
1111111110110011
1111101101111010
1111110101100000
1111101101101110
1111011111010110
1111100110010101
1111100010111011
1111001001100111
1111010100010001
1111100101111010
1111010100000011
1111011110111101
1111111000001101
0000000010110010
1111111111100100
1111100011111111
1111101110000100
0000000111101101
1111001011111000
1111001111101111
1111110101101000
0000001001001111
0000011111011010
0000101000001111
1111100111010001
1111111100001011
0000100101011100
1111000001011011
1111001101000001
0000000011100111
0000011110101001
0000110011001000
0000110011000111
1111111110001111
0000010000110111
0000110001100101
1111010001011011
1111010111010111
0000000110000101
0000001010010011
0000011010111001
0000011010100111
1111110001010010
0000000100110001
0000010101111101
1111010110110000
1111100001011010
1111111000011110
0000001110101111
0000100001110101
0000100101100110
1111111001100001
0000010000000010
0000100101110110
1111100010011011
1111110000101110
0000001100001110
1111111000000001
0000000100001010
0000000100000011
1111100111100101
1111110111101010
0000001000111100
1111011000100001
1111100010001010
1111111001000011
0000010011000001
0001010110100000
1110010101000101
0000010100000010
0001011010111101
1110010001000010
1111111010011111
0000001001110100
1111111011000011
0000011001000111
0001010111110011
1110001110110001
0000011001011000
0001011011101110
1110001010001101
1111111111110010
0000001010101110
1111110110011101
0000011110101011
0001011010010101
1110001000010100
0000011111000011
0001011101100111
1110000010010000
0000000011111100
0000001011111001
1111101111100001
0000100100000100
0000110100000000
0000101000111011
0000011001110011
0000011000110110
0000100110011010
0000000011100001
1111110001010111
0000000100011011
0000000100000101
0000010000000111
0000000111010001
1111110001110000
1111101011011010
1111111011101010
1111011011011001
1111000011111001
1111011001100011
0000010011011001
0000011101000111
0000010110001000
1111111010001100
1111110000100110
0000000010111110
1111100001101000
1111000110101101
1111011110010101
1111111010010100
1111111011000100
1111110100100001
0000000000010111
0000000011111100
1111110110111000
1111111110001101
0000000001110000
1111110110000011
0000001010100001
0000001011100011
0000000011001011
0000010001101101
0000010101100011
0000000110011001
0000001110011010
0000010001110001
0000000100001100
0000001110011011
0000010010001011
0000001001110010
0000010100100110
0000011011001110
0000001100011011
0000001110100100
0000010100011000
0000000111011000
1110011010001101
0000100011100111
0001000011011001
1110000000010000
0000100101111010
0001011011000000
1111011001000110
0000000100100100
0000011100111101
1110010011100111
0000100001110001
0001001000101001
1101111010101101
0000100101011100
0001100000101010
1111011000000100
0000000110111000
0000100011001011
1110001111000101
0000100011010100
0001001011010010
1101110100110001
0000100110110111
0001100100000101
1111010011001011
0000000111110101
0000100110001101
1111101011001001
1111101010011110
1111110110001101
1111110001101110
1111110111111011
0000000000110101
0000000101100100
0000001100110111
0000001101101001
1111110011011100
1111110010110010
1111111110100000
1111111001100001
1111111111100101
0000001000010101
0000001100011001
0000010011000000
0000010011011101
1111111000110100
1111111001011110
0000000100101000
1111111011100110
0000000010010100
0000001010000110
0000001001110010
0000010000000101
0000001111011101
1111110001101001
1111101111111101
0000010100000010
1111010101010111
1111010110011010
0000001111101001
1111101011101001
1111100011000100
0000001011101011
1111110001101111
1111110111011100
0000101100101111
1111001111110110
1111011001000010
0000100101011111
1111101000111110
1111100111000000
0000100000110110
1111110100100000
1111111001001101
0000101100010010
1111010011001101
1111011011011111
0000100110100000
1111101100100010
1111101000101010
0000100000110100
1111101010010000
1111001001101000
1111100110110001
1111101001010001
1111010100001101
1111100101000000
0000011001100111
0000010110101100
0000010101100000
1111111010011101
1111010011100011
1111110011101100
1111111110100010
1111100101000100
1111111000011101
0000111000111011
0000110100101001
0000110100110111
1111110101110100
1111001110100010
1111101110101111
1111110101100000
1111011011010110
1111101110100111
0000101010001001
0000100101001101
0000100101010111
1111110101111100
1111111010001011
1111110100111001
1111110011011001
1111101000010110
1111011000010000
1111101110010101
1111011110111010
1111001010011111
0000010110101001
0000000111110010
1111110010011110
0000010100000110
1111110001010100
1111001110001101
0000001001111110
1111100010001000
1110111100000100
0001000001100110
0000110110101000
0000011000000100
0001000101100000
0000100100100110
1111110110001001
0000101110001100
0000000110001111
1111010110100110
0000000101111010
1111101110000110
1111100111101001
0000010001111001
1111111011010101
1111100100000010
0000010111101110
0000010011111110
0000000001111010
0000001001100100
1111110100100000
1111101111111100
0000010011011111
0000000000000100
1111101010111111
0000011000000101
0000010111101010
0000001000010010
0000000001100101
1111101110010110
1111101100001010
0000001001111001
1111111000001001
1111100101110111
0000001101000100
0000001101111001
0000000001001100
1111011101011001
1111011101100000
1111111011100100
1111011111111010
1111110010111110
0000001011111110
0000000011100110
0000010010011001
0000010111000001
1111101000101110
1111100111111110
0000000110101111
1111101011010010
1111111101111001
0000010111001100
0000001111101111
0000011101100101
0000100001101001
1111101000010000
1111100111011110
0000000101001001
1111101000101001
1111111010100011
0000010010011110
0000001001111111
0000010110101000
0000011001100101
1111011111100010
1111100001001111
1111100010010000
1111110000100001
1111111000011001
1111110100001011
1111111100111000
0000001011111000
0000000101011110
1111110100001100
1111110101110100
1111110101010101
0000000111110101
0000001111000010
0000001000101000
0000010011101000
0000100001000001
0000011000010001
0000001000000001
0000001011000001
0000000101111110
0000010110010100
0000011101111111
0000010010010111
0000011000000010
0000100100011010
0000010110110011
1110111101100111
1110110110110110
1110111001001111
1110101000110111
1110011110111011
1110100001111111
1110101101010110
1110100000010010
1110100101011001
0001000110011001
0001001101011110
0001001001100000
0001000110110000
0001001101111000
0001001001101011
0000111001110001
0000111101010010
0000111100110100
0000000100110010
0000000100101000
1111111101111101
0000001011111010
0000001111101011
0000001000011111
0000000111111110
0000001010010001
0000000110011101
0000011100101101
0000100001100100
0000010111001100
0000101000000010
0000110010000100
0000100010010100
0000100010100011
0000101100000110
0000011110111110
1111111100110100
1111111111011000
1111111011011111
1111111111011101
0000000110001011
1111111110010001
1111111011101110
0000000001011110
1111111011101011
1111101110000100
1111101111111100
1111101110000011
1111110001011111
1111110110111001
1111110000111110
1111110001000010
1111110110100001
1111110001101100
0001000100110010
1111101110100110
1111011100101110
0010000010110010
1111001011110001
1110011111011001
0001011111100001
1111011000011011
1111000110001101
0001001111100100
1111110000110010
1111010111000100
0010001011000111
1111001010110111
1110010111001000
0001100110101011
1111010111010001
1110111111111011
0001010010110001
1111110010000100
1111010110100101
0010001101001100
1111001001111101
1110010011000110
0001101000010100
1111010110000110
1110111011010110
1111111100111111
0000001001111011
1111111111101001
0001100101001001
0010000010011100
0000110001000101
1110011110000111
1101110111011111
1111001010011110
0000000101000100
0000010101111110
0000001011001110
0001100001011101
0010000001010110
0000110000101010
1110010011111001
1101101110001000
1111000011101011
0000001000100011
0000010111111001
0000001110001110
0001100100110101
0010000100010011
0000110100111001
1110001110000010
1101100111101011
1110111110101010
0000101110100011
0000110001001111
0000100000110101
0000101011000000
0000011001101110
0000001000100000
0000010101111011
1111111001000010
1111100111010111
0000100110011000
0000100011111100
0000010110001011
0000011010101100
0000000001011001
1111110010101001
0000001000101100
1111100010110111
1111010010110000
0000000011100001
0000000001110001
1111110111011100
1111110111001001
1111011111001000
1111010100001001
1111101000111001
1111000101011101
1110111000011100
1111100100001101
1111100000000100
1111101010000110
1111011001111110
1110111101000101
1111010101111001
1111100010111100
1111001101010000
1111011110100110
1111100010111000
1111001110101000
1111011010000101
1111010101110110
1110101000110011
1111000100000011
1111100110000000
1111000001111110
1111010110101000
0000011101011011
0000001100001000
0000010010100111
0000010011110111
1111100111110110
1111111101010010
0000010111110111
1111110010110011
0000000001110110
0000010110101101
1111110100101000
1111110011010010
0000000110011001
1111001111010111
1111001000100100
0000000000101101
1111100100010111
1111101000110000
0000110000110110
1111111101111001
1111110011110010
0000011011111001
1111010010011001
1111000011000111
0000010111000101
1111101011001101
1111101001001001
0000101001001011
1111111011010111
1111110110101111
0000010111110101
1111010010110111
1111001000111011
0000010100101101
1111101110001111
1111110001010010
0000000001110111
1111011100100111
1111001000101101
0000000001001000
1111110110110111
1111110110001000
1111111010111001
0000101100010011
0001000011011110
0000000110111010
1111100000101111
1111001011011100
0000000001110000
1111110110011001
1111110100010000
1111110111011111
0000101000000100
0000111110010011
0000000100111010
1111011100100000
1111001000000100
0000000011000000
1111110110010111
1111110101100100
1111111011010011
0000101011100010
0001000011101001
1111111111001000
0000011011001010
0000001001110100
0000011001001011
0001001001100011
0000101001011001
0000001000101010
0000110011011100
0000010111101001
0000010010001111
0000101100100111
0000011100111001
0000101010110011
0001010111111000
0000111000010111
0000011100110101
0001000011010110
0000100111010001
0000010101101011
0000110001100111
0000100001001100
0000101100110000
0001011010110010
0000111011011100
0000011101100001
0001000101000010
0000101000111101
1111110011001111
0000000101101111
0000001000001100
1110100010111100
1111110101010100
0001100111011010
1110011000111100
1111100111110110
0001111010111100
1111110010111010
0000000101100010
0000001100000111
1110100001100001
1111110011110011
0001101010001111
1110011001100001
1111100111101000
0001111110100111
1111101111100111
0000000110010010
0000001110011001
1110011010111110
1111110011101010
0001101101110001
1110010011001011
1111100111001100
0010000010110001
1111110011000000
0000000011001010
0000001001111011
1111110111000001
0000010000011010
0000010101101111
1111110111000110
0000001100001010
0000001111011001
1111111011111000
0000001001111101
0000010001001100
1111111111111010
0000010110101001
0000011011111100
0000000001111111
0000010100100001
0000010111011000
1111110001001011
1111111101100111
0000000100000100
1111110100111000
0000001001100000
0000001110001010
1111110111011001
0000001000001110
0000001010100101
0001001001101111
0001101100010010
0000110110001111
1101101011111101
1100100001010010
1110000101100111
0001001000100111
0001110101110001
0001000010010101
0001001110011101
0001110001011101
0000111001011111
1101100011101101
1100010110101001
1101111011110110
0001001110001101
0001111100110101
0001000101100110
0001001110100111
0001101110010110
0000111011001010
1101100011111010
1100010011111101
1101111101011001
0001001110100010
0001111010101111
0001001001010000
0000101010000111
0000100100111100
0000100001100111
0000110000100001
0000011110011011
0000010100011001
0000101000010111
0000100101110100
0000100101001100
1111110000000100
1111100000100001
1111011101010100
1111101111010111
1111010010001001
1111001000010010
1111101101010001
1111100000100011
1111100000000110
0000001011101101
1111101110110110
1111100100011100
0000010000100110
1111100110111010
1111010101101010
0000010101100111
0000000001010000
1111111010010001
0000000000111010
1111111010000010
1111110100000101
0000000111011001
0000000010101110
1111110110011010
0000000110110110
0000001000001011
1111111101101100
0000000011010010
1111111100011011
1111110101011110
0000001010111001
0000000110001110
1111111000110110
0000001011001000
0000001100010000
0000000000110001
0000000110100010
0000000000011011
1111111000110101
0000001101110011
0000001001111111
1111111100001010
0000001100101111
0000001110111000
0000000011010000
1111101101011011
1111111110101101
0000011001010101
1111111100101011
0000011111101011
0000110111111011
0000010000111001
0000110000001010
0000111101101000
1111100001101101
1111101011110011
0000001010010000
1111101011001010
0000000110110000
0000100011101011
0000001000011001
0000100000110111
0000110001110110
1110111111001110
1111000111011000
1111100100110000
1111000101110010
1111011101101010
1111111001101000
1111100001111000
1111110111010011
0000001000000110
1110011010111101
1101100101110000
1110101010101110
0000010001001000
0000010011010011
1111111110011000
0001001111011011
0010001000001001
0001010110010011
1110100001111000
1101100111111010
1110101010111100
0000010011111011
0000010011010101
1111111011011100
0001001110111100
0010000111010101
0001010010000111
1110010000010100
1101010010100010
1110011011001000
0000010100010001
0000010010000000
1111111110111000
0001011111001110
0010010111110011
0001100111011010
0000000010101000
1111111010010100
1111110010111011
0000000101001101
1111111011110101
1111101100111001
0000000010100010
1111111101000110
1111110000000001
0000001101111110
0000000100011011
1111111001100001
0000010010010010
0000000111110000
1111110101000111
0000001110110111
0000001000001010
1111110111101110
0000010000010111
0000001010100101
0000000000010000
0000010100100011
0000001101111111
1111111100000110
0000001110010111
0000001011010111
1111111011111110
1111111101010000
1111101100111110
1111101011100011
0000000101011110
1111111000111000
1111101100110111
0000001110010110
0000010001111110
0000001000011010
0000000001110011
1111110000101101
1111101110100100
0000001001111001
1111111100100100
1111101111101111
0000010010011111
0000010101110100
0000001011101011
0000000010100101
1111110001110010
1111101111110101
0000001001000010
1111111011101101
1111101111000011
0000001111001111
0000010010010110
0000001000011000
0000100000001100
0000100001100111
0000011100110000
0000100000000101
0000010110111111
0000011010101000
0000011001111100
0000010010111101
0000010101011000
1111100101000110
1111100010010000
1111011111010110
1111100001000101
1111010011111100
1111011010001101
1111011110100110
1111010100010001
1111011001110110
1111101111001111
1111101000101111
1111101011010101
1111101010111101
1111011010001000
1111100110110101
1111110000101101
1111100100101010
1111110000000000
0000000011110110
0000011001100101
0000101000010011
1111110010001000
0000011001101011
0000110110001010
1111110111100100
0000011000111111
0000101101011000
1111011101111001
1111110000000001
0000000011111010
1111000111100000
1111101011110011
0000001110101100
1111010000000010
1111101111010111
0000001010000010
1111011110111011
1111111000111000
0000010110100111
1111001011001000
1111111001010100
0000100111001101
1111011000100110
0000000001111011
0000100110110010
0001010010001110
0010010010010001
0001101100111101
1111100110110011
1111010100111111
1111100111111010
1111001001011110
1110001101110010
1110101101010100
0001011011000101
0010011101001101
0001111001101011
1111100110001100
1111010011011011
1111101001101100
1111000011000101
1110000101011100
1110101000101010
0001011100001011
0010011011101010
0001111010000100
1111100110110101
1111010010000000
1111101001101000
1111000001110100
1110000001100100
1110100101110101
0000000101110010
0000001101001100
0000001000111110
1111111001001111
0000000011010100
0000001010000100
1111101100010100
1111110001110111
1111111100110001
0000000111000110
0000001111011000
0000001100111011
1111111100010001
0000000111010000
0000001111100100
1111110000101010
1111110111011100
0000000011101001
0000000010001010
0000001001000010
0000000101111011
1111111001001111
0000000010111011
0000001010001101
1111101111110011
1111110101101010
0000000000100101
1111100000011001
1111011111111101
1111101100010110
1111100010001111
1111101011001000
1111101110011100
1111101000011101
1111110101110100
1111110100111110
1111011001010100
1111010000010011
1111100001011101
1111101001010101
1111101101011001
1111110100000111
1111111101100110
0000001000101111
0000001001100010
0000001000000001
0000000001010111
0000000111000001
0000100001101111
0000101011001101
0000100110010011
0000101011100101
0000111101001001
0000110100010010
0000100001100011
1111111101100100
1111100111001001
0000111011101010
0000011110010111
1111101110000011
0001000011110001
0001000000001001
0000010101011011
0000001010010111
1111100010010110
1111001111111000
0000011110100011
1111111100100101
1111010000110000
0000101110110101
0000100110111111
0000000000100101
1111110011011010
1111001010010100
1110111000111010
0000000110001111
1111100010000100
1110110111110100
0000010101111011
0000001011101011
1111100110000101
0000010100111011
0000011110111100
0000010101101100
0000011000101001
0000101101000111
0000011101101101
0000001111000001
0000100010111101
0000010111101111
1111111110100101
0000000110101111
0000000000000100
0000000001011110
0000010100001100
0000000111001011
1111111011111000
0000001110100010
0000000101001000
0000010010001011
0000011110100101
0000010111100111
0000011010010100
0000110010100101
0000100101110101
0000010100010110
0000101101001101
0000100011111101
1111111111011110
1111101010111011
1111011111101100
0000000110100101
1111110011101111
1111011101011001
0000001001111101
0000001001011000
1111111000000110
0000001110011111
1111110010010000
1111100000011010
0000011010011110
0000000000000011
1111100010001001
0000100001110111
0000011011111100
0000000011111100
0000010001000101
1111110100111101
1111100010010101
0000011010011111
1111111111100111
1111100000100000
0000011101011011
0000010111001001
1111111110001010
