1110111010110100
0000001111010011
1111111011100101
0000001011001100
0000011101100010
0000001001010010
0000000110001110
1111110000100011
0000000011011011
1111111111011110
0000001011111011
0001000110011100
1111101110110100
1111010000011110
0000111111110111
1111010110000110
0010010110110001
0000000010010101
1111111000110001
1111101011100010
1111011101111011
0000001001110011
1111101111100110
1111100111110110
1111111001101111
1111100110010011
0000001100011011
0000101010011110
0000000101000111
1111100100111010
0000100100010111
1111100010000010
0000001010000110
0000001101100101
1111110111001100
1111010000100001
0000010111001001
1111111110101001
1111101101101110
1111111000100010
1111111111001000
0001011000011011
0000000001100000
0000110011010110
1111110111100110
1111110111010111
1111010001010000
1111110101110010
0000001101011100
0000000000011110
0000000000111111
0000000001111110
0000000111011011
1111000110010100
1111110111010111
1111110010101010
0000100101110110
1111111101110100
1111101010001010
1111111110101010
0010101011011101
0000000010000110
0000001010010001
0000010001000110
0000001110100001
0000000000111101
1111110000001111
0000001100000101
1111111100100011
0000000001011000
0000000101101011
1111110101000111
1111111011111111
1111111000100010
0000000010001100
0000100101101000
1111101011100010
1111101110010011
0000101110100010
1111101010000100
0000010101100111
1111110110110111
1111101000101100
1111111011100110
1111111001011000
1111111001000100
1111111001111001
0000100001110100
1111111100110110
1111111100010001
0000111011001001
1111110010000010
1111101110100011
1111111110010001
1111111000100110
1111111100111110
0000001011011101
0000001100111101
1111110100110010
0000001000110000
1111111100000000
1111111101101011
0000000101000100
1111110111101111
1111111110110001
1111110111000000
0000000001010100
0001010111001001
1111111011000100
1111011011111101
1111000111111101
0000011000101010
1111111100101000
1111110000100010
0000001001010101
1111101001000001
1111111111110101
0000000100111000
1111111101000101
0000000000001100
0000000100110111
0000011000000010
0000000000111011
1111011000000100
1111110110000111
0001001101101111
0000000010101110
1111100110101101
0000000000100011
0000001101100101
1111110111101010
1111110010000111
0000000111001111
0000011001101010
1111101111110101
0000010011111010
0000000101011101
0000001100110100
1111011001000001
0000000000010101
0000011101100110
0000000100111000
1111111110101010
0000010001010110
0000001100001101
1111110100011101
0000000001111111
0000000001010101
1111111011110111
0000000011111100
1111111111100001
1111101001111011
0000010001111011
0000001000010110
1111100110111101
1111101111111001
0000011100001100
0000101010000000
1111101110110001
0000110101000001
1111011000111011
0000100111111101
0000101100001000
1111101100110011
0000000111000110
1111001011001111
0000010100010101
1111111100110100
1111001001101111
1111101110011110
1111000010001001
0000010010011111
0000010101000111
0000001010111010
0000010110100000
0000001001001001
1111100101001000
0000001110011101
1111110111100010
0000000100011111
1111111111000111
0000101100010100
0000000011000010
0000010101001000
0000101101111000
1111110101111101
1111011100011100
1111111111111100
1111110011100111
1111111001110110
0000000100000010
1111111111111100
0000010011011000
0000001000010011
0001100010111101
1111111110100001
1111111011000100
0000000011000100
0000000001001001
1111001101000101
0000000011001101
1111111110110110
1111101011000100
0000001101010100
1111011110101010
0000010001010001
0000001011010000
0000001111001110
0000000000001000
1111101100011100
0000001011001000
0000100101000010
1111111001000001
0000000000111000
0000001010010001
1111100001011011
0000000111010110
1111100011111100
0000000000010000
1111010100110101
0000000011001100
0000001000000000
0000101011101111
1111101011100110
0000010111100101
0000000100000010
1111111000110000
0000001011100110
1111110010110101
0000000110111000
0000010111100110
0000001001100111
1111010110000001
1111111010010110
1111010110100111
0000001001110101
0000010100001010
1111111010101110
1111111100011101
0000010000110000
1111111111101100
1111101011010001
0000000011100101
0000100101101110
1111110001110001
1111111100111000
0000111001000000
0000011111100100
0000000111001001
1111100110111010
1111111111100000
1111110001100001
0000001110010000
1111110010011110
0000000111010100
1111111111000100
1111110110010011
0000000101101011
0000001001111100
0000001010110010
0000000111001001
0001000001111000
0000001111101110
0000001100101100
1111011100011101
0000000111001001
1110100001011100
0000001010111111
0000011101001101
0000000011001111
0000000101011101
0000001000100001
0000010010011010
1111111101100001
1111111010110001
0000001100011001
1111110101110101
0000000000000100
0000011000101110
0000001101001100
1111101001010011
1111110101100100
1111110001111111
1111111101010101
1111110111001110
0000000010100011
1111111011110111
0000000111101010
0000101111010000
1111110101001100
1111110001010000
1111110111001010
1111110001000101
1111111100001010
1111111111011001
0000111010110110
1111100100011100
1111111100011110
1111111000000110
1111101010001101
0000000111111010
0000000001010000
1111110111011000
1111111000111101
0000000000111001
0000000000010001
1111111110101001
0000000000011010
1111111111110111
0000000000000110
1111111111101111
1111111111110110
0000000000001110
1111111111100111
0000000000100010
0000000100010110
1111111110100101
1111111100111110
0000000100011100
1111111101011000
1111000001101101
0000000011100001
0000010111111010
0000101011101000
0000100000110011
1111111010101011
0000010101001101
1111001111000000
0000000000101011
0000010001111101
0000000110100111
0001000000100111
0000001110111001
1111011110100001
0001010001011111
1111011011011100
1111110110110101
0000000111010001
1111110111101001
0000010100011100
1111111001110101
1111111101001110
0000001011010100
0000000111001010
0000000111101101
1111011101011111
0000000011011010
0000010110001111
0000000000110011
1111011011001100
1111010001000110
0001011001000011
1111111011010010
1111110001010000
0000101001000000
0000011001000010
1111111000000001
1111111110100011
0000010000001101
0000001110100110
1111101110100000
1111101011001101
0000000101101010
1111011101111110
1111101000101000
0000010111011101
0000011001011111
1111110000011101
0000000110010100
0000000001011111
1111110110100110
0000000100010101
1111111110010010
0000100011101110
0000000100001110
0000000100100100
1111011111110010
0000000100011010
1111000100011110
0000000111110001
0000010110010100
0000000011111101
0000000010000010
0000000111011111
0000011010110111
0000000100001001
0000010100001101
0000000100001111
1111111011101100
0000001011101101
1111111011110101
1110101111100110
0000111000011010
0000000010111110
0000100011111110
0000110111101000
0000100001000100
1111100001011101
0000110001111000
1111101000111110
0000001010110010
1111110111011111
0000000000101100
0000000000110110
0000000001101101
0000000001101111
0000000111010001
1111101110001011
1111111010110010
0000010001010010
0000000101111100
1111110101011000
1111110101100001
0000011000000110
1111101110100110
0000101001110111
0010100011010011
1111101111111100
1111101100101100
1111101011001111
1111100110010101
0000000011001000
0000000001011111
0000010110000101
1111101111000111
1111110100011000
1111111101101001
1111110111011000
0000000000011011
0000010000101110
1111101101000100
0000001000011111
0000001101001101
0000011010101001
1111100111111010
1111100010011011
0000001001110111
0000000000000111
1111110110100101
1111110101010101
1111111001101111
0000010011110111
1111111111001101
0000111011011101
1111101100110011
1111101111000111
1111100101011011
1111111000111001
1111111010100011
1111101110111100
0000000010000111
0000011110101011
1111011101011010
1111111111000010
0001001110000111
1111100001001010
0000000010011111
1111101010101101
0000000001111111
1111110100010000
1111110111000111
1111101010000110
0000000011000100
0000010110110001
0000000101011000
1111111010110110
1111110111110010
0000100001011001
1111111100110110
0000000000010010
0000101100010100
0000000111001110
1111111010000011
1111110011111000
1111111110100111
1111110110010110
1111101101101001
1111111010110001
0000000100011011
0000000111110111
0000011011101100
0000010111111010
1111100111011001
1111101111100001
0001010001101100
1111111000011101
1111000110001111
1111101000011010
0000000001111010
0000110001011010
1111110111001101
1111101000010101
1111111011010000
0000100000011011
0000000100101100
1111100100110100
0000011001100010
1111110111011011
1111110110101000
1111110101000011
1111110110110100
1111111111110111
1111111100010111
0000111110100111
1111111110000111
1111111001100000
0000000101000010
1111100111100010
0000001101001010
1111111101110110
1111110100111011
1111110100101101
0000000000000000
1111111111111111
1111111111111111
1111111111111111
1111111111111111
0000000000000000
0000000000000000
1111111111111111
0000000000000000
0000000000000000
0000000000000000
1111111111111111
1111111111111111
0000000000000000
1111111111111111
0000000000000000
1111011110010110
0000010111110110
0000101110110100
0000010111101000
0000011000110110
0000000001001010
0000010110111000
0000000000101000
1111000110011011
0000010101000011
1111110010001011
0000011010000010
1111000111000111
0000001011011001
0000001110000100
0000010111000100
1111110110111101
0000000001000100
1111111001101110
0000000100110100
0000000001011001
1111111110001101
0000000000000110
1111111101010000
1111111110001000
0000000000010011
1111111111001110
0000001111000110
1111111010010011
1111110110111110
0000010000001011
1111111000011111
0000010111010111
1111111010101100
1111111100110000
0000000001000110
1111111000110000
1111111111110000
1111111111001111
0000010001010111
1111101110101001
0000000011010001
1111110101111010
1111111011011101
1111111010101110
0000000011001110
1111111101110000
0000000001100100
0000100001110101
1111111110010011
1111110111100110
0000000011011110
1111111100110000
0000000110001000
1111110000001101
0000010111111010
0000000000101010
1111111000110111
0000000010010110
0000011011100011
1111111101011110
1111101010101101
0000011000100001
1111101000010010
0000111110100010
1111111001001011
0000001101011010
1111110100010010
1111110100011001
1111111101010000
1111110101000000
1110100001111111
0000100000011110
0000000010111101
0000010001111011
0000000011010011
0000001111110111
0000001100100011
1111110010011100
0000010001000001
1111101111001001
0000010000001110
1111111001000000
1111110001001110
0000010101100001
1111111000010010
1111111000001110
0000100111010100
0000000101001011
0000010011100000
1111111111010111
0000010011110010
0000101100011011
1111101111001000
1111100100111100
0000001100000010
0000001101001111
0000000010111000
1111111011000110
0000001011011001
1111110111111100
0000010001010111
0000010010001001
1111111100000000
0000011100000010
0000000000010001
1111010001100111
0000001110011000
0000110110010010
1111111001001110
0000010000000010
1111111101000101
0000000111011101
0000000101010111
0000011011001110
0000000110101110
0000011001011011
0001001100100000
1111111101001110
0000001100001011
1111110111001101
0000010010010110
1110110111100010
0000000110100010
1111101010001010
0000001110010000
0000001111110011
0000000111001010
0000001010011111
0000001100110010
1111110101100111
0000111011001110
0000110000101001
1111111100011011
1111010100010001
0000000101110010
1111111101010101
1111010010111111
1111111011111011
0000000110101100
1111111100011000
0000010001100001
1111101111100101
1111101111100001
1111111011011110
1111111111011101
1111111001001000
1111001101010110
1111010001001001
0000000000000011
0001000011000000
0000001001011011
0000000101000001
0000111011001101
0000000000010110
1111110111111000
1111110101101001
1111100001100011
0000011011101100
0000000000101111
1111101001111111
0000000110000110
1111011110100000
0000010011111001
0000000000010100
1111110111000011
1111111001001111
1111110100000011
1111110110001011
1111111010110110
1111111111000110
0001100000110010
1111100010110011
1111000101101011
0001100001111001
1111001101001111
1111110110101000
0000000001000101
1111111001100000
0000000100111101
0000000001011100
1111111110001010
0000000000000110
1111111101001000
1111111110000100
0000000000010010
1111111111001110
0000001111101000
1111111010000101
1111110110101001
0000010000110001
1111111000001110
0001000011111111
1111101100010101
0000000000000010
1111111010100111
1111110011011001
0000000111100110
0000000110001011
1111100000010000
0000000011010100
1111111111101001
0000000111010000
1111101001011011
1111111101011000
0000101110101111
1111100011010100
0000011111101010
0000100000111101
1111101101001011
1111110000101101
0000000000010101
1111110110101000
0000000010010010
1111111101011011
0000011000001001
0000000001011001
0000001111011001
1111111110110000
1111011011000101
1111111010110111
0000110110001101
1111011000011100
0000110111010101
0000000010101111
0000001011011101
1111011010100110
1111111101101000
1111101000011011
0000000000111101
0000000001101101
0000011001111000
0001010101111100
1111111001000100
0000101011110000
1111111110111001
1111111101011100
1111110110011101
0000000010001101
1111110010110111
1111001100100001
0000000001111011
0000001011100101
0000000100010010
0000001000000000
0000000111010011
0000000110011111
1111110000110011
0000000111000001
0000000011100001
0001010110010000
1111111010000110
1111101011011101
0000001001110001
1111111011001101
0000010000011001
0000011010110001
0000000100111000
1111101010011101
0000001101011100
1111111011000010
0000000101000011
0000001000011001
1111100111010110
1111111100111100
1111110101100110
0000000110010010
0000101101100011
1111100111000100
1111101101010010
0000110011010000
1111101010110101
1111101001100100
1111111111001001
1111110000010110
1111110001100101
1111110110000001
1111111111110001
1111111001011001
0001001010010110
0000011001100100
1111110110011001
0000000101101010
1111101101101000
0000010111110110
1111111000111001
1111110101001000
1111110001111010
0010001100000010
1111011110011101
1111110100100100
1111101000110101
1111110001100110
0000001010000010
0000000000011001
1111100001011011
0000000100101111
0000000011010011
0000001010111001
1111011100010011
0000001000001010
0000100100101010
1111010100001111
0000110001010110
0000001010111011
1111110010101010
0000011010110000
0000000110101011
0000001010001110
1111110110110000
1111110100010001
0000010101100001
1111101010110010
0000000001001010
0000001110010110
1111111001000011
1111110001010001
1111111110000011
1111110100111111
1111111010101010
1110110101001111
1111110001001101
0000010110111000
0000001110100010
0000011000011111
0000000000010000
0000000101011100
1111001110110000
0000011000101001
0000011011110100
0000010100010000
1111100010111100
0000011000110111
0001001101001001
1111010001000101
0001011000001000
0000000011111011
1111110010100011
0000001001101001
0000001000111000
0000000000111011
0000000101000001
1111111100110010
1111110001100101
0000000000000000
1111111011001100
1111111101100100
1111000010011111
1111110001011010
0000000100111100
0001101001101110
1111011110010010
1111110111011010
0000000010100000
0000101101001010
1111111001000001
0000111011000011
1111111001001101
1111101111100101
0000001010110000
1111101111000110
0000011101111001
1111101000100011
0000000110110010
1111100110110010
1111110000101110
0000010100010110
1111110000110001
0000010011001111
1111110111101111
0000000000111010
0001000000101101
1111110110101011
1111111101010110
0000010010100111
1111100100100101
0000000100010001
1111010010111010
1111111110011111
1111011101001110
1111111100000011
1111110011001010
0000100010010011
0000000111100101
0000100100100001
1111111001011001
1111111001001110
0000001001100100
1111101111001110
0000000110110100
0000000111010111
0000010111001000
1111100101011010
1111111100111010
1111101101001001
1111110111011011
1111110100101101
0000000000110110
0000000101001100
1111110011110110
0000110001101110
0000001010010110
1111101010000001
0000001001011000
1111100010110100
0000000000101111
1111111001101101
0000101000010011
1111101101100111
1111111100011000
1111110011010001
0000111000110110
1111110010101111
1111011011001001
0001000010110110
1111010011000111
0000101000100111
0000000010101101
1111111000100110
1111111010101011
1111110101011000
0000000111010011
1111110010010101
0000001111010011
0000000000000100
1111111011011011
0000000011001101
0000011100001110
1111111101011001
1111101000001011
0000100001001000
1111101010010000
1111101110100111
1111111110011110
0000000101100001
1111111101011101
0000000111010101
1110110110001101
0000000010100111
0000010100101011
1111000111101011
0000000010000110
0010000110100000
0000000001000100
0000001010000100
1111111011101100
0000000000100011
1111111001111111
1111111011110110
0000000110011101
1111101001000110
0000000000110000
1111111001101001
0010010011100000
1111111010001010
0000001100110101
0000111001001000
1111111001001010
1110011011110111
0000000001010101
1111110011110101
1111111110110000
1111111011111111
0000000011110011
1111011010001001
1111101011111011
1111101101000110
1111110011010001
1111110110000001
1111110110000110
1111111101110011
1111110100000110
1111110100100111
0000000011011000
1111111100000110
1111000000110101
1111110001010101
0010000011101001
1111000000101111
0001111010011011
0000000000001111
1111111111111111
1111111111111111
0000000000000001
1111111111111001
1111111111111111
0000000000000100
0000000000000101
1111111111101110
1111111111111110
1111111111110101
0000000000000001
1111111111111110
0000000000000110
1111111111111111
0000000000000110
