11111111111111111111111110111000
00000000000000000000000001101000
00000000000000000000000000100100
11111111111111111111111110101110
00000000000000000000000000010011
11111111111111111111111111101110
00000000000000000000000010001010
00000000000000000000000010010011
00000000000000000000000000000110
00000000000000000000000011111001
00000000000000000000000010001101
11111111111111111111111101010010
00000000000000000000000001010001
00000000000000000000000000111010
00000000000000000000000101010010
11111111111111111111111111110000
11111111111111111111111110101101
11111111111111111111111110111111
00000000000000000000000001010111
00000000000000000000000100100101
00000000000000000000000010010110
00000000000000000000001101010010
11111111111111111111111111001001
11111111111111111111111111100100
00000000000000000000000100111001
00000000000000000000000000100110
00000000000000000000000010001001
00000000000000000000000000110100
11111111111111111111111110010011
00000000000000000000000001000010
00000000000000000000000001110100
00000000000000000000000001101010
00000000000000000000000000010011
00000000000000000000000010011010
00000000000000000000001111001000
00000000000000000000011011111000
11111111111111111111111110010110
00000000000000000000101001001011
00000000000000000000000010111000
00000000000000000000000000010001
00000000000000000000000000101001
00000000000000000000000001101101
11111111111111111111111001001100
00000000000000000000000110101010
00000000000000000000000001000101
00000000000000000000000001000111
00000000000000000000000000001010
00000000000000000000000010011011
00000000000000000000000000011011
11111111111111111111111011110011
00000000000000000000000000010010
00000000000000000000000010110110
11111111111111111111111101111000
00000000000000000000000000110101
00000000000000000000000010011110
00000000000000000000000011101010
00000000000000000000000101000110
11111111111111111111110000111001
11111111111111111111111111011101
00000000000000000000000011010110
00000000000000000000000001000101
00000000000000000000000010111101
11111111111111111111111110111110
11111111111111111111111101111001
11111111111111111111111111101011
11111111111111111111111111111100
11111111111111111111111101000011
00000000000000000000000011110010
00000000000000000000000001001111
00000000000000000000000000001000
00000000000000000000000001111101
00000000000000000000000100010010
00000000000000000000000000001110
11111111111111111111111110101110
00000000000000000000000011110000
11111111111111111111111110100100
11111111111111111111111110000001
11111111111111111111111111101011
00000000000000000000000001000011
00000000000000000000000100011001
00000000000000000000000000100111
00000000000000000000000001101000
00000000000000000000000001010000
00000000000000000000000101110101
11111111111111111111111111000001
11111111111111111111111110001010
00000000000000000000000000110100
00000000000000000000000000000011
00000000000000000000000000010100
11111111111111111111111110000111
00000000000000000000000010111010
11111111111111111111111111110110
00000000000000000000000000001000
00000000000000000000000000110010
11111111111111111111111111110100
00000000000000000000000010001010
00000000000000000000000001101011
00000000000000000000000000010100
00000000000000000000000011000011
00000000000000000000000001101001
00000000000000000000000000010001
00000000000000000000000010000110
00000000000000000000000010011001
00000000000000000000000001110100
11111111111111111111111110010000
00000000000000000000000000010101
00000000000000000000000010010101
00000000000000000000011001010010
11111111111111111111111111010011
00000000000000000000000001100000
00000000000000000000000001100100
00000000000000000000000000000101
