11111111111111111111111110100101
00000000000000000000000010010001
00000000000000000000000010100100
11111111111111111111111011010100
00000000000000000000000000110000
00000000000000000000000011001011
00000000000000000000000100110101
11111111111111111111111111110011
11111111111111111111111011111011
00000000000000000000000000001110
00000000000000000000000000111010
11111111111111111111111101101101
11111111111111111111101010111111
00000000000000000000010100000000
11111111111111111111111111001100
00000000000000000000001101110011
00000000000000000000000100111101
11111111111111111111111100100111
00000000000000000000000000100111
00000000000000000000000010100110
00000000000000000000000000111011
00000000000000000000000010000101
00000000000000000000000010110100
00000000000000000000000000010001
00000000000000000000000000011011
11111111111111111111111101111010
00000000000000000000000110101001
00000000000000000000000000001110
00000000000000000000000001101110
11111111111111111111111110010110
00000000000000000000000001010100
11111111111111111111111111110100
