0000000100110110
1111100111111001
0000001011111110
1111101000011111
0000010100000010
0000001101000111
0000001101111111
0000001011011111
1111101111101111
0000001111011010
0000001110100011
1111111011010001
1111010111001110
0000110010110100
1111111100011100
0000011000011110
0000010111100000
0000000111101001
0000000011100101
0000001001111000
0000001111010010
1111010001101010
0000001110000011
1111101101011110
1111011010110101
0000011010010011
0000010001100101
1111011000100001
0000001111110101
1111111100000001
1111111011100110
0000000010101001
1111100001000111
0000000011001111
0000000101000000
1111100101000010
1111111011010101
0000010100000010
1111111011001111
0000001100010110
0000001001000100
1111111001010110
0000010011100100
0000001111100111
1111110111000111
1111111111111110
0000011000100010
1111110101000100
0000001110100011
0000111110101001
0000010010001001
1111110000111010
1111110010011011
0000000010010001
1111110000111111
1111011100100000
1111111100111110
1111100110011011
0000000001000101
1111110000010000
1111101101100011
0000000000101011
1111110101000000
0000000011001000
0000001110100100
1111111101110100
1111111010110000
1111101011011110
1111100000100000
1111110000010111
1111111110110011
0000110101011101
0000000111000001
0000000011010100
1111110110001101
0000000110011101
1111111100011011
0000011111101000
1110111110001000
1111101001010001
1111110010100110
0000000110000101
0000000001011110
1111110110010100
0000001011101111
0000000000101001
1111101001101100
0000000110111100
0000000111010001
0000010011111010
0000001000110100
1111111110011101
0000000111011010
1111111011010111
1111110000011101
0000110101100010
1111111111111001
0000000001111111
1111111000111001
1111111010100110
0000001101101101
1111111000010110
0000000110011111
1111111010010111
0000000000101011
1111111111011100
1111101101011000
0000000100001001
1111101001100010
0000000010000111
1111101011011111
1111110101110001
1111111001001110
0000000000100011
1111111011110110
0000000110001111
0000001010010001
0000000001011101
1111100110001001
1111111011010111
1111111101001011
0000001000000110
0000000101001011
1111111101001011
0000000110110000
0000100001101100
0000110110011001
1111110101000011
1111111110000111
0000100011100111
0000000111101011
1111101001011100
1111111101111111
1111110111010110
0000010010101100
1111110101010101
0000000000110101
0000000001001101
1111111010001011
0000000111111011
1111010011011101
1111000101101100
0000001010100000
0001011000011011
1111101001011011
1111101111001101
1111111001110011
1111110100011010
0000001111000111
0000011011011001
1111110100101011
1111111111101100
0000010000000001
0000100010111101
0000000111010111
1111011000001000
0000011000011010
1111111010010100
1111110111110011
1111111011110010
0000010011010011
0000100100100111
1111110101010011
0000000111001100
0000001111010101
1111110011100111
0000110001001011
1111110010100011
0000001110100101
0000011101101010
1111100111010101
1111111011100001
1111001101000001
1111101111111110
1111101100001110
0000110011100001
1111110001111010
0000001110011101
1111110010111010
1111111000110110
0000011011010111
0000000000111010
1111110000101001
1111011101000000
1111100111001001
0000001110101011
1111110111001101
0000000110010111
0000101001000110
1111100110000111
1111101100110010
1111111000011100
0001001101110001
0000000110110001
1111111101110100
1111111000101101
0000000000110011
0000001010011011
0000001101011010
1111110101000001
0000001011101010
1111111010110100
0000000011000101
1111111001100100
1111110011110010
0000000010010011
0000100100100110
0000000110011110
0000000001011110
0000000000111000
0000000110111110
1111110100110100
0000000100011001
1111111001100011
0000000011000110
1111101000001100
1111101110000010
1111011011011111
0000000010000110
1111111111000110
1111111011000000
0000000100100011
0000000000110011
0000000000010101
1110110101100101
0000000011110000
1111101011001110
0010011110011101
1111110101001101
1111110010001001
0000000100000101
0000010110001010
0000000100011000
0000010011001101
0000001001101001
1111111100111111
1111001001000100
1111101000110011
1111011000011010
1111010100101100
0000000001001111
0000011110000100
0000001111000110
1111110100011000
1111101100100011
1111111001001111
0000001001011010
1111101100001010
0000000011010010
0000011111101001
1111111100011110
1111110110100101
1111111101111010
0000010001110011
0000010111000101
0000011000110010
1111101000110101
0000001010110001
0000011000110000
1111111010010110
0000001011100011
0000111101110001
1111111010100000
0000011100010000
0000000100000011
0000000100101100
1111101001010110
0000000111111110
1111011001100011
0000011010001000
0000011000111010
0000011101110111
1111011010111100
1111110111001011
1111110000010111
1111101110101011
1111110011000001
0000000100001010
1111100000001011
0000010101100101
1111111111111100
1111111100101001
0000000010010011
1111111101001110
1111110010010111
1111100111111010
1111101000110110
1111100001011101
0000001100111101
1111111001111011
0000000010011000
0000000100011000
1111111111010100
0000000000010000
0000000001011010
0000000001001111
1111111111101111
0000000010001000
0000000101001111
1111111111110111
1111101111000011
0000000110110111
0000000101001011
0000000111110111
0000000000101010
0000000100110001
0000000101011010
1111111010001101
1111111010111001
0000001000000000
1111111110000000
1111110001101010
0000000110100000
1111110110110110
0000000100011001
0000000011011100
1111111100111011
0000000110010111
1111111100010000
1111111101100100
1111111111011001
1111111110100010
0000001001010010
0000000100001101
1111111111101001
0000000101000101
0000000000100011
1111111110000100
1111111100001110
1111111111001110
0000000010000101
1111111111001110
1111111101011010
1111111110011011
1111111100000100
1111111101101001
1111111100011010
1111111101110101
1111111101011011
0000000000101011
1111111111101101
0000000000000011
0000000100100110
0000000010010010
1111111111001001
1111111111110001
1111111110110110
1111111110110111
0000000011010011
1111111101111011
0000000001101101
0000000000010000
0000011101110100
0000000001111011
0000010110010010
1111100100011001
1111101011001010
1111111101001000
1111111101001010
0000010101100110
1111110010010111
1111110101000111
1111111010000011
1111110011100100
1111100011001100
1111110101100101
1111001100000000
0000010010100011
1111110010111000
1111110010010111
1111101011110001
0001000000110110
0000011000110100
1111111101101110
1111111110001011
0000000100000110
1111110110100100
0000010100101001
1111110100100100
1111111001011111
0000010011101101
0000001011011100
0000000000110111
0000010110110011
1111101010101100
1111111000011100
1111111110110001
1111111000110110
0000000000011011
1111111110010111
1111110110010011
0000000101100101
1111010110010000
1111111001101110
0000000001001010
1111101101010000
1111110110100010
0000100010011100
1111111110110001
1111111000101010
0000010101010010
1111110101000011
0000010100011100
0000000000010000
1111110000101000
0001010101111111
0000000011111011
1111111011000000
0000001110100011
1111110111000011
0000000010010011
1111101110110100
0000000000000101
0000000110011100
0000000001111001
0000000101010001
0000001100101101
1111010101001111
0000000100101011
0000001010100110
0000001100110001
0000000000101111
0000001000100010
0000001111111010
0000010110000110
0000000110100101
0000001011101111
0000000000000101
1111100110010001
1111111101011101
0000000010011100
0000010111010000
1111111001011110
1111111110000001
1111111101010001
1111111001111111
0000000111100010
1110101010010000
0000011100011010
1111111001101010
0000000100010000
0000011110010110
0000000000011000
1111111011011000
0000001000101001
1111111111010100
0000001000000111
0000000110100010
1111110001000011
0000000111100010
0000010100000100
1111101000100000
1111111110000100
1111110100100000
1111110111100111
0000000110010100
0000000111100101
0000000110100101
0000000000000011
0000001000111001
1111110110101011
1111111100110001
1111110001101001
1111110010101000
1111110011010101
0000010001101101
1111111010111000
1111101110001001
0000000001010100
1111111010110101
0000101110001110
1111111011010010
1111111001001000
1111110001000010
0000011000000011
1111101111100000
0000010011101011
1111101100110001
0000100000010110
1111111110001001
1111110001011110
0000000000001101
1111111010011110
0000000001011000
1111111111010100
1111111100101010
1111111101101100
1111101011001111
1111111100110011
0000000000000111
1111111110011101
1111111111101000
1111111100011001
0000000101011110
1111111100100111
1111111010100001
1111111010111110
0000000001000101
1111111100010011
1111111110100010
1111111010010101
0000000011100100
0000010110011001
0000000101110111
0000000101110011
0000000111110111
0000000010001101
1111111110101110
1111111101010010
0000000000000100
1111100010010110
0000100010100101
1111110111000010
1111110011111010
0000010000000111
1111111101011111
1111111011100001
1111111001011101
0000010111000011
1111111010100000
1111110011001010
1111111101111110
1111110001101110
0000010001011010
1111011111001111
0001010101111000
0000000010011001
1111111111011100
0000001011011100
1111101011011001
1111111110111111
0000001000100001
0000000010111001
0000000100110011
1111111100001111
1111010010001101
0000011000010001
1111101101110111
1111101111001000
0000010100010101
0000001000000000
1111110100111011
1111101110111001
1111101111111110
1111100001100001
0000001001101101
1111101010111100
1111101111001000
1111110100100000
1111110100001000
0000100100101100
1111110111010100
0000001100000011
0000001111110011
1111111000001100
1111111011000011
1111111101100110
1111110111001000
0000000000011000
0000000011101000
0000000010110110
1111111011010101
1111110001010111
0000001000011100
1111111001101010
1111111010111000
1111110110110100
1111101001001010
1111110101110100
0001110010011011
0000001101011011
0000001001001111
1111110110101011
0000000111000101
1111111000100001
1111110010010111
1111110110110101
0000000101110100
1111110100101100
1111100010110001
0000010110110110
0000000011010111
1111101000010100
1111111010101001
0000000011101100
0000000011110010
0000000101100010
0000000010001101
1111101000010101
1111110111010111
0000000011000010
0000010000101100
0000000100101011
0000000000000111
0000001111111000
0000001000100001
0000001000101000
1111110011111110
1111101101101101
0000010001010011
1111111010100100
0000001111100000
0000011000100100
0000000011111111
0000001000111100
1111110111010010
0000001001010110
1111110011000110
1111010111000010
1111111110011111
1111101010000000
1111001000110001
1111110010011001
0000001111010111
1111110010011000
0000001111111110
1111101011001011
0000000000111111
0000100000000111
0000000101111101
0000101000000110
0000000101101101
0000000000110001
1111110000111111
0000101101100101
0000001101000010
0000011010101011
1111101111001111
1111101110010010
0000000000101001
0000001010000100
1111011101100101
0000000101011100
1111011010111101
1111111010001101
0000000101010100
1111100001110100
0000011001010100
0000001011011111
0000010000010100
1111101101011001
0000010001011011
0000000010011010
1111110100001101
0000001001010001
0000000011111000
0000000100111010
0000001011000111
1111111101110101
1111111111011100
0000000000111101
0000000011011001
1111010011101000
0000001111010001
1111111010100101
1111111100010101
0000000011011100
1111111011010011
1111111000001101
0000001110100011
0000000100101110
0000101000000100
0000001111011000
1111011111011110
0000000001111101
1111111110100100
0000000101110001
0000000100100000
0000001001001111
1111110100000110
0000000011100101
0000000010000010
0000000010011001
0000000000000001
1111010000111101
1111110011011011
0000101001101111
1111100000011100
0000000111100000
1111101010101100
1111110111001000
0000001000110011
1111001111101100
1111111001010001
1111010001110111
1111111111001100
0000101011100000
0000000000110001
0000000101010000
1111101111010100
1111111101010111
0001100010110101
1111110100010100
0000000001011111
0000100001011001
1111110101111001
1111110011011001
0000000110110011
0000000111110110
1111111010100011
0000000010110001
1111110011111110
0000001010011111
0000001111100100
0000000001111011
0000001000011111
1111110110100100
1111110010000011
1111110110011001
1111111100011000
1111110000100101
0000000000100101
0000011100100101
0000000000100011
0000000101010010
1111111111100000
1111101111001110
1111110101100101
0000000001001000
1111111000101101
1111110011001100
0000001000010100
0000000001110101
1111110110000101
1111101111100000
0000000010100111
1111111001010011
0000001010100100
1111111000011110
1111100111010001
0001001101111010
1111111110011111
0000000010111111
0000000000101100
1111111110100100
1111111100010010
1111101110110101
0000000011010111
1111110110110101
1111101010101000
1111101111010100
0000000011001101
0000011011110110
1111101111011101
1111100111011111
1111101000001010
1111110111000101
0000000010000000
1111110011110111
0000001001001101
0000000010011001
0000010110110111
1111011011100010
1111110010111100
0000010110110000
1111100010010001
1111111111000010
0000001100110110
1111110100111100
1111111110001011
0000010101010100
0001001110010010
1111111011011111
0000100001010111
1111111010010111
1111110011101001
1111110010101011
1111101111011100
1111100010000110
1111101010001100
0000000001011010
0000001000001101
0000100001100110
0000011010010100
0000010011001011
0000100101110011
1111101111011010
1111011011111100
0000011011111111
1111110000010101
0000000010101000
0000010000011111
1111111010100001
1111100010011100
1111100000001010
1111011000001010
1111011100001001
0000010101010000
1111011011001000
1111101101000111
0000011010111101
1111110000001011
1111110100000000
0000011110110111
1111100011101001
1111101110110011
1111011111010010
0000011000100001
0000011101110010
0000101000101001
0000001010011101
0000001000111010
1111110101001111
1111110000000111
0000000011001101
1111110100010000
1111100100101011
1111111100000100
1111110011101000
1111101101101101
1111110001010111
1111111011011101
1111011010001000
0000100001111011
1111101110000001
0000100110010100
0000001101000100
1111101110001101
1111100110001110
0000001111100101
0000000001111101
0000000010010111
0000011110110101
0000100000000011
0000000010010111
1111101001011110
0000001000010110
0000000010000000
1111111001011010
1111110001100100
0000011010101101
1111111100100000
1111101000111000
1111101010011001
1111111111010011
1111110011011101
0000000101010000
1111110111110000
1111111111101111
0000010010101100
1111101111101010
1111101000111100
1111111000001101
1111100110100000
1111111110110101
0000101100101000
1111111011001001
1111111001110100
1111101010101100
1111100011010001
1111100110101010
1111101011110010
1111101110110010
1111110100100110
0000100000011000
1111111100100111
1111110101000111
0000100001111100
1111101100010000
1111101100011101
1111110111010001
0000010110000001
0000100110100001
0000100100101101
1111101101010000
0000001100000000
0000101110000001
1111111000000001
1111111110001001
1111101101000011
0000010100101001
1111101110010011
0000000101101000
1111111001101010
1111101110100010
0000011011100111
1111101001011010
0000010000011010
1111111110011000
0000001110011101
1111111010010110
0000000101110011
1111111010001011
1111110001110101
1111110000110010
0000000111011110
0000001100100011
1111100100100011
1111110011110111
0000001111110100
1111110101111010
1111111100011011
1111110001011101
1111111011101100
0000010001010101
0000001000111000
1111111101001101
0000001001101111
0000001111101100
1111100011001010
0000001110000001
0000000110010000
1111110111110100
0000010000010111
0000001001111000
1111011110010111
0000000000111010
1111010110011101
1111011101100001
0000010110101000
0000001110100100
0000101010011010
1111110110100011
1111100011110000
0000010100101010
1111111110110100
0000010011010001
1111011011100100
0000000110110111
1111110110101010
1111100111001000
0000000100110111
0000001100010100
0000101001101101
0000010000100001
1111111011101010
0000000100110100
0000000110001100
0000001110110011
0000010010110000
1111110100100011
0000000000101111
0000010011000101
1111110111110110
1111111001010101
1111111011111101
0000011110011011
0000001000111100
1111110010001110
0001001001111110
0000100111111010
1111100010111000
1111101000011111
1111011010100111
1111011010001111
0000010100000001
1111110000100100
1111111010101010
0000000111010111
1111111100100110
1111110110111000
1111111011110100
1110100111100001
0000001110010100
1111101101011000
0000111011000100
0000001010010000
1111101101111000
1111110011001000
0000000010110101
1111110000101100
1111111110011111
1111011101000011
1111110101110001
0000010000111001
0000001110001101
1111011110010011
0000010100010111
0000001000001110
0000010111010001
0000000011101100
1111111011100111
1111011111001110
1111111101001101
0000000010000010
0000010101000111
0000000100000011
1111111100000011
1111110101110011
0000111000101000
0000010110001110
1111111001100101
1111100001100111
0000010101111010
1111111011010001
1111110010011110
1111111001111000
0000000000010011
0000011001101001
0000000000111000
1111110001001000
1111101101110111
1111010011110101
0000000110010001
0000000011010000
1111110011000111
0000000100111101
1111110100110000
1111101001011001
0000001010010011
0000111000111000
0000010100101101
0000000000000001
0000001001011000
0000001100101110
1111110101100000
1111101110010000
1111100000001011
1111111111100001
0000011100100100
0000011010111110
1111110111101011
1111111100010011
1111110110001100
1111111101000010
1111100000001010
1111111001100111
1111100011100000
0000000111011010
0000001110000101
1111110111111100
0000001011010001
0000000111100000
0000001100000111
1111110000011000
1111111000010110
1111101001110110
0000001001111110
1111111100001100
0000000001001001
0000000011010110
1111110101010010
0000001000011110
0000000011011101
0000000001000001
0000100000111000
0000100100010001
0000011101000100
1111110001111110
1111010110000000
1111111001101000
1111111110011001
1111111011000011
0000001100101100
0000001000011011
0000000010000010
1111101110101110
1111111110111100
1111111111100011
1111101110110001
1111110000000011
0000100010101100
0000000110111110
1111101111100110
1111101111101001
1111111000110001
1111100110110110
0000000001111000
0000000110100101
0000000011101100
0000000110101101
1111101101101100
0000100101010010
1111111001110010
0000001001101000
0000000110110110
1111110100001000
0000100110100000
1111111101100000
1111110010100011
1111110101011111
0000001110100000
1111110110011001
1111111110111101
1111101101011110
1111111110011000
0000000000111010
0000000001000001
1111101101110101
1111110100100000
1111010111100111
0001000000000111
0000000011010110
0000010101101101
0000000101010100
1111111111010101
1111101111111011
1111111111001100
1111111101100101
0000000100001011
1111100001111100
1111110100010010
1111111010011111
0000101000010111
1111111110001011
1111111000111101
0000001111111100
0000000000110000
0000010101101111
0000000001010111
1111100101010011
1111110011110100
1111111110101110
1111111111100110
0000000011010101
1111111110011110
1111111001000000
0000110000101000
0000010001100111
0000000100011011
1111101100111100
1111110110110010
0000000011011111
0000001010001101
0000010001100100
1111111001100100
0000011000010010
1111101100000001
1111101111001100
1111111011101001
1111111101111100
0000000111001001
0000010011101011
1111100100100111
1111101110101000
1111110011011000
0000000111001011
1111101110101001
0000001100000011
0000010010011111
1111110100101010
0000010010001010
1111011111101111
0000100110000001
0000001001000010
0000110011111001
1111111011100011
1111110101110010
1111101100010000
1111110010000101
1111111011010011
0000000100111000
1111101111110100
1111101110000100
0000011010100000
0000000000111000
0000001101100100
0000000101110111
0000000111010110
1111111011001111
1111110000110111
1111101001001100
1111101011100011
1111111101000101
0001100110001011
0000000101100001
1111110111110001
0000000001111110
1111111001111000
1111101101010110
1111101101100111
1111111100101100
1111110101010110
1111111110111001
1111100110010010
1111111001111111
1111101011000100
1111111101011011
1111101100001000
0000000000100100
1111111010001100
1111110110100110
1111110101011110
0000000100100101
0000010110111010
1111111111110111
0000000110100111
0000000101100011
1111111110011001
1111111010110010
0000001000010111
1111110010110101
0000001100000001
0000000111101010
1111110001100010
1111111110110000
0000001101100101
0000000001001000
1111110001101101
0000001011010001
0000000011110100
0000000101010001
0000000101101010
0000000000110101
0000000001000111
1111111101010010
1111100101010101
1111111001110111
1111101010011101
1111111110101001
1111111000110010
0000000100100010
1111111110111110
1111111101001011
1111110110101111
0000000011111000
0000110001010111
0000000011010001
1111111001100100
0000000000110000
0000000110000010
1111111101110010
0000000011000100
1111100001000100
0000110010100011
1111101001011101
1111111111000000
0000000010101101
0000000000100101
1111111100100110
1111111111001111
0000001011000100
1111111010110010
0000001010101011
0000001100110000
1111101101100100
0000001111011111
1111101010111000
1111100111101011
0000000110001110
0000000111011011
1111111110001101
0000001000111101
1111110001011101
0000000011101101
1111111100000101
0000000001100011
1111111011101011
0000010000101000
1111111001001111
1111100101110001
1111101101111111
0000000111101101
0010000100001000
1111110111000100
0000000010101111
0000001011011011
1111111111001110
1111101100010010
1111111001110001
0000010101101011
0000001000011110
0000100101010111
0000001100111001
0000101000101101
0000010000111111
1111001101100100
1111111010010101
0000000010101110
0000000011100110
1111001101011011
1111111010011101
1111101001010011
0000110000110100
1111100000011011
1111110001010111
1111111101111000
0000011001001101
0000000001000111
0000001010000101
0000000011011111
1111010110000101
0000001111110011
0000000111011100
1111101111001110
1111111000111101
0000001111000111
1111110100100101
0000010001101000
0000011010110011
1111110000010010
0000010001101001
1111110011100111
1111110101010110
1111110001111011
1111100111001110
1111111111000100
1111101110010101
0000000110000001
1111111111101101
1111110010100000
0000110001000001
0001001111110101
0000001101111110
0000001010110100
1111100001110110
1111110000101000
1111110101001011
1111110011010001
1111101100100011
0000010010011100
0000001001010001
1111100110010110
0000010000000110
1111101110101100
1111101001011101
1111111111011011
0000100010001011
0000000011011010
1111111011010111
1111110010111110
1111110101011101
1111100100110001
0000000110010111
0000000001101000
1111101010001010
0001110010100101
1111110001000000
0000000001111111
1111100100011100
0000010001000000
0000001011110100
1111111100100011
0000000101000101
1111110001100000
0000010101110110
0000001000110111
1111101111011111
1111111110100000
0000010001011101
1111111110000011
1111101101001101
1111110110010111
1111111100010010
1111111111010111
1111111101101001
0000001001111101
0000001010010110
0000000100010001
0000001000010110
0000000011010000
1111100010111011
0000000100100111
1111101000100001
0000000111001001
0000010001010001
1111111100000101
1111110001101011
0000000011100110
1111111010100111
1111110010110101
1111111100101000
1111111000111100
1111100101010110
1111111100100110
0000111101100010
1111111100011000
0000000100110011
1111111100101000
1111110111000101
1111111100110001
1111100100100001
0001100111110111
1111111001000110
0000000000110000
0000000001000100
0000001101001100
0000000011001110
0000001000011100
0000001000110011
1111101110110110
1111011100111100
1111110100101001
1111111011000011
1111101111111110
1111110010101101
1111110101100110
1111010101101111
1111111001011111
0000010110010010
1111111111001110
1111111100110001
1111101111100001
0000000010010100
0000010000111111
1111110110000100
1111110110100001
0000110101000010
1111011110101101
0000101111011101
1111111101110001
0000011001101100
1111110101010101
1111111100110100
0000100001011000
1111111111010100
0000000101001000
1111001101110011
1111111100000111
0000010010110100
1111101011000001
1111110110010000
1111110011010111
1111100101011110
0000001100001110
0000000000101111
0000000100101010
0000000011111101
1111111001000011
0000001100010011
1111100010110101
1111010101101100
1111101101000101
1111101011001010
1111110100010010
1111100000110101
1111101011010010
0000101011001011
1111101000100110
0000010000010001
1111011110000010
0000110010010101
0000001001101011
0000010010110000
1111110111101100
0000001101010011
0000000100011101
1111100010000111
0000001011001111
0000010001100101
1111100110000010
0000011000100111
0000000100010010
0001001110100101
1111111110101000
1111110110011111
0000011100000011
1111110100001010
1111100010100001
1111100010101100
1111111011111100
0000000001101010
0000000010111100
1111110111001010
0000000010000011
1111110010101111
1111110001110110
1111110110101000
1111110110011011
1111110100111110
1111101101010011
0000000011111100
1111100111111101
0000011001001000
1111100110100110
0000000101111100
1111101101000011
1111100111010011
1111101110100100
0000001010101111
1111111010101111
0000000011111100
1111101110100111
0000100101101101
1111111001011011
0000010001101101
1111110101101000
0000000001110010
1111110110110010
0001000011000001
0000010101111101
1111111010011101
0000000110101100
0000000011110101
0000000101111100
0000000110011111
1111111001100111
0000001100011000
0000000011011101
1111110100011111
1111101100000110
1111111111110011
1111111111111100
0000000111011110
1111111001101011
1111110010011101
1111111100011011
1111111111001111
1111110111001011
0000111111111110
1111110111101000
1111111101110100
0000001101010001
1111110001111010
1111110100011111
1111111110001001
1111111011010101
1111111100110001
1111111110100101
1111110001011010
0000001100010110
1111111001001000
1111110101011110
1111111000110100
1111111101001101
1111011001001100
1111111111011011
1111111111011110
1111111100011011
0000000100001101
0000000111100000
0000000110110001
0000000100100111
0000000000100010
0000001010000111
1111111101110010
1111100111101110
0000011011000111
0000000000010011
0000000110001110
0000000010111110
0000000110000101
0000001011111010
0000000000110000
1111111100101101
1111011000010001
0000000101111111
1111111101100110
0001101110101100
1111111011011000
0000001011000011
1111101010100001
1111111001100100
0000000010001101
0000001010000000
0000001001001001
0000011100100001
0000000010000001
0000010011011111
0001000101001111
0000011001000001
1111111011001010
1111111100000010
0000001011010100
1111110111110001
1111110000110101
1111111111000001
0000001001111010
1111010111110110
1111101100110000
1111110000000101
0000001011111001
1111010111111000
1111101000011100
1111100110101000
0000001111000100
1111111101111000
0000001000110001
0000001001101011
0000010010010010
0000001010000000
1111111010001100
1111100101001111
1111111001010010
0000001101100101
1111110010101101
1111111111111001
0000000110000101
1111101111101001
0000001010010011
0000000101100001
1111110101010110
1111110000011100
1111110100101100
0000000101110111
1111111101101101
1111111000000111
1111111010000111
1111101111101101
0000000110011111
1111110111010100
0000100111111110
1111101111111101
1111111001101001
1111110011011001
0000000100001010
1111111011100001
1111101110000001
1111110001101100
0000010000010100
0000010100111101
1111110001100000
0000001000111000
0000010100101101
0000000101111111
1111111001101001
1111111010010100
1111110101000100
1111111000110001
0000010010100110
0000010001000110
0000010101000110
1111100011001111
0000000111010110
1111110000101100
1111100001111000
1111111010101100
1111110100001101
0000101010010110
1111110110100100
1111100101111011
0000001100001111
1111011010101111
1111101100000010
1111110110101001
1111111100011110
1111111010000010
0000000111101011
0000000101001100
0000110001111111
1111111001000110
1111110111000001
0000001111000000
0000001100011011
0000000111110111
0000001110011101
0000000100111111
1111111100011110
1111110011111100
0000010010101010
0000001101111100
0000010100100001
1111011101110100
1111111000001000
0000100110101010
1111100001010010
0001001101111011
0000000100110111
1111111111110100
1111100011010010
1111110110011011
0000010010101110
1111101110000001
1111111101110101
1111011101010011
1111111000000011
0001010111100111
0000000010001011
0000000110100110
1111111101010110
1111101111010101
0000100101011000
1111101100111000
0000000001111011
0000000000111110
1111110111100110
0000000011010000
0000001011101011
1111110111101010
0000000001010001
0000001000001011
1111011000010111
1111111101111011
1111100010001001
0000000110010110
1111110100000101
1111011100111011
1111010001010111
1111110001110110
1111101000110111
1111111111011111
1111110011110001
0000000111000011
0000000100110011
1111110001010000
0000000001110010
1111110111111100
0000000100000000
1111111010110000
1111101001000011
0000101010110111
0000000010101111
0000001011001011
0000001011000110
0000011000011111
1111111000010010
0000010100110001
1111101010110000
1111111001100010
0000000111100100
0000010011101100
1111111101010110
0000001001100010
0000000110100011
0000010101100010
0000000010110100
1111100100111101
0000000101100001
1111110100101001
1111100101010110
0000010010110010
0000000110100111
1111111011000000
1111110100100011
1111110100110110
0000001101011100
0000001000000110
0000011000111111
1111101101101010
0000100111011000
1111101000010101
1111101111011001
1111111100111011
0000011000010100
0000000110001010
0000001100110010
0000001000111110
0000010101000001
1111111000100000
1111101111000011
0000001011001110
0000000001011000
0000001001101101
1111101011001101
0000001111110011
1111110000011000
0000010000000011
1111101111101111
1111110100110011
0000000100010011
0000001110000011
1111111100010111
0000010011010000
1111110000001011
0000000001011111
1111110110000100
0000000001011111
0000000010001101
1111111010101101
0000001000100010
1111111000100001
0000001001011011
1111111100001000
1111111110011001
1111110111100110
0000010010000000
0000000000001011
1111111001100100
1111111010100000
0000000001100010
0000001100100011
1111110101001011
1111111100100101
0000000000110110
1111111001011110
1111111010010101
1111111111000011
0000000100101010
0000000101001001
0000000100001001
1111110010110100
0000000100101001
0001111100111001
0000001001101010
0000000001111110
0000100011011101
1111111111010001
0000010110111010
1111111011000011
0000001000001101
0000100101101011
1111111000001110
1111010111001001
1111111011000011
0000000011010101
1111111100000011
1111111001000010
0000001001001000
1111111100101100
1111001011100010
1111100111110100
1111110011101100
1111100010101010
0000000100001011
1111110011001100
0000100001110111
1111110010101010
1111111111100110
1111101111110011
1111111101101000
1111100100001100
1111100100100101
1111111010001111
1111111101010100
1111111111111101
1111111110100100
0000000011011010
0000011001000100
1111111010110100
0000111100010010
1111111101100001
1111111111000110
1111011001111100
0000000000000101
1111111000011010
1111111111000101
1111111001100111
1111110111100111
1111111100000001
0000000010111010
1111111111110100
1111111101100111
0000000100111110
1111111111001101
1111111010001110
1111111110111010
1111111110110100
1111111011110101
0000000110011010
1111111110011110
0000000000100001
1111111101011000
0000000100111010
1111101001111001
0000000101011010
0000001011101010
0000010101111101
1111111000101000
0000000010111000
0000010100110011
1111110100100101
1111101111001100
0000001011100110
1111111110011100
0001000100001001
0000000100111000
1111011010110011
0000010111110010
1111011110010001
0000100001111111
1111101000000100
1111110101001010
1111110011011110
1111110010010110
1111101110010000
1111111100100011
1111101100111111
0000010001011010
0000000101100100
1111110011100010
1111111111000110
0000000011101001
1111110100010010
1111101001011011
1111110000110010
1111111101111011
1111110000011111
0000000001000101
0000000100110001
1111111110100100
0000100110000001
0000001011111101
1111111110101110
1111110111111110
0000000001100100
0000000111001001
1111100100011000
1111111100000100
1111110110110101
0000000011010100
0000000111110011
1111111111100101
1111110111001001
0000000000111110
1111111001010011
1111111111001010
1111110110111111
1111111101101100
1111011001000110
0000000100111010
0000000000100111
0000000100011101
1111111100010011
1111111100001010
1111111010110000
1111110010001001
0001100001001001
1111100111000110
1111100100000000
1111110110011011
0000000010010100
1111111011000011
1111111101110000
1111011111100110
0000001011100101
1111110110101111
1111100111110000
0001010101101111
1111100101010100
1111110001010001
1111100111010011
0000000110011010
1111100001101100
0000010011100011
1111111010000000
0000110000111111
0000111101001010
1111111000001100
0000011011001101
1111111101011000
1111110010110001
1111110100010001
1111111101000111
1111101110111000
1111110100000111
1111110101010001
0000111100000110
1111110000101001
1111101011110100
1111110010111001
1111101010100110
0000000000010100
1111111100010111
0000110010111001
0000000100011010
1111110110001010
1111110001011111
0000000010110101
0000001011101111
0000000111011011
1111111110110111
0000001001000000
1111011000100100
1111011101110001
1111101111000110
0001010000011110
0000001101111001
1111111011010101
1111111001101001
0000000001011111
0000000101110110
0000000011001001
1111110010010110
0000000010001001
0000000010111000
1111101100000100
0000001100010110
0000001010110001
0000000110100000
1111110101101000
0000000000001001
1111111100111101
1111111000101010
1111110010110001
0000000111101011
0000001110000111
0000000011100001
0000011110101011
1111101010101100
1111110111010010
1111100110011100
1111101111110010
0000001010101110
1111110101110111
0000000001110111
0000110100100011
1111110001000101
1111110001100110
0000001111010010
1111110000001000
1111111111101011
0000001101011110
1111100101000001
0000001001000010
1111111101110001
0000011011100010
1111111000100001
1111111100100010
0000000010110111
1111110011011101
1111101000011101
1111110110100001
0000000100000100
0000001101111011
1111001010001101
1111101111000101
1111111011010110
1111110001111101
0000000110101110
0000000101110100
0000010111011110
0000001100011111
1111100001101010
0000011011110001
0000000110000011
1111010101001001
1111101010111100
0001000011110101
1111101011101101
1111101000011011
0000001100101101
0000000100001111
0000011101011101
0000000010100101
0000001100011100
1111110110000111
0000001001100001
1111011101100011
1111110101010001
1111111110010101
0000000110111001
0000010001100100
0000010101001010
0000000100001100
0000000110000111
0000001101011111
0000000011101011
1111101100100101
0000000010000001
1111111110001101
1111111111001100
0000000001110000
1111110111010101
0000000101000110
0000001111110001
0000000001101011
0000000101100111
0000001001101000
1111101010111111
0000001100001010
0000000010101110
1111111101111010
0000000100111110
1111111011000001
1111110010100100
1111111010011101
0000000010110011
1111101001110110
0000000000111110
0000000011001111
0001000111010011
0000000101001010
1111111011000101
0000000000110000
1111111101101000
0000000001100111
1111111110000101
1111111100101000
1111101101001010
0000001111111110
0000000101001010
0000001010000000
0000000001011001
1111101000000011
1111100111111101
1111111101101110
1111101110011111
1111111010100001
1111101011001110
0000001000100111
1111100011110110
0000101000100110
1111101000011111
0001001011110011
0000000001100100
1111110010011011
1111011101000100
0000001110001010
0000000000011111
0000001000101001
1111110100011010
0000001001000101
0000001101110110
1111000100011111
0000100000010011
0000010100011011
1111111110011111
1111101110111111
1111110101000011
1111111001110100
0000000000010011
0000000110111011
0000000001100000
1111100100101010
1111101111010110
1111110111010110
1111110111111001
1111110000101100
0000001011101100
0000010110101110
1111111001111100
0000000010001000
1111110100010011
1111110101110010
0000000001001011
1111111110011101
0000001110111001
0000101001110010
0000000010101010
1111111010110001
1111110011100110
1111111101101000
1111111101011110
0000000001110001
1111111001111101
1111111011111000
0000000101010011
1111111011101011
0000101011010010
1111111100001010
1111111011001001
1111110101111010
1111111101100010
1111111110110010
1111101111110011
1111111111010010
0000101100000110
1111100010000010
1111111100001011
1111100111110010
1111111101100100
1111111111101110
0001100101011010
0000000000001100
1111101101110110
1111111011010011
1111111111101000
1111110100101100
1111111100101001
0000000111010001
1111111100010000
0000001100010101
0000000010010110
0000001010001111
0000000011001111
0000000000111101
1111111111011111
0000000101011010
1111111100101011
0000000000100110
0000000001011110
1111100110000001
1111100000110011
1111111001010111
1111111000111100
1111111111110000
0000010011110010
0000000111110000
0000000000110100
1111111000111011
1111110110001010
1111110111011100
1111101001001010
0001001110111101
1111101011010001
1111110100001000
1111100101100011
1111101000110100
1111110011111111
0000001010110110
1111110001110000
0000010011001111
1111100100011001
0000000011011100
0000100010001010
1111111111000010
1111111011010000
0000010001111000
1111101101000011
1111101110101010
1111101110100111
1111111100111110
0001010000111110
1111110001101100
1111110010011110
1111101111110100
1111100001110100
0000000111001010
1111101110000001
1111110000110110
1111110110010101
0000000000001110
0000000101001100
1111111010111111
1111111000010110
1111111001010001
1111110111110001
1111110110011010
0000000111101010
0000100000111101
1111101001011101
1111101110001010
1111110010101101
1111111110111000
1111111110101010
1111111011110011
1111111000011101
1111111101101000
0000100110111110
1111110100010011
0000000001000011
0000001110110101
0000001000110010
1111111011011001
0000000010111001
1111110001000010
0000011001111011
1111111010111101
1111111110000010
1111111101110111
1111111100111110
1111111100010011
0000000010010000
0000100000100110
1111111001111010
0001001110011110
1111111110000110
1111111110000110
1111001111100110
1111111111111101
1111110110110110
1111111101001101
1111110001010111
1111110101100001
1111111001100110
0000000010110111
1111111110100101
1111111111111010
0000001000101011
1111111111001111
1111111100010011
1111111101010000
1111111110100001
1111111100000000
0000001000001001
1111111101100100
0000000011111101
1111111011010010
0000000011111000
1111100111110010
1111111111111001
0000000010000010
0000001000011000
0000001111001011
0000000110101000
1111111100100000
0001001010011000
0000000110110100
1111110001100101
0000001010101000
0000000110101100
1111110110010010
1111101100100011
1111110001110100
1111111001000101
0000000010011011
0000000111000010
0000000100100010
0000010101100100
1111110110100111
0000000010010011
1111111111000100
1111111010011100
1111100011001100
0000000000010011
1111110001010010
0000000100010010
0000000011011111
1111111110011010
1111111101110111
0000000101000101
0000000010111110
0000001111100010
1111101011010111
0000000100100010
0000101110011011
0000000110011111
0000001000100011
1111111001111101
1111110011001100
1111111000001101
1111101000110110
1111101101100001
0000000110001101
0000000010001010
0000100100101010
0000000001101001
1111100000001100
1111001101000101
1111101010101011
1111110001111100
1111111110100010
1111110000111000
1111111000100011
1111111101010000
0000101111010101
0000011000110010
0000110111110001
1111011111000001
0000001100111101
1111111110101000
1111111010111010
1111101001011000
1111111011101111
0000110010101011
1111111011111110
1111101100010000
1111101000100111
1111101011010100
1111101101001100
0000001100101000
0000001000001100
1111110001101011
1111111000100100
1111101111101100
0000000011101001
1111001010110011
0000011001110101
1111010001111011
0000000010010100
0000000101010111
1111101010110100
1111111001000111
0000101001001111
0000011010000010
0000001000100010
0000010000010110
1111110010111101
1111111001111010
0000000001111100
0000000010001111
1111111111011010
0000001111010011
0000001101011111
0000100101101000
0000000100111001
1111101011010011
0000011101000101
0000001111011111
1111110011100110
0000001110110101
1111110000010000
1111111010000110
1111111111010011
1111101101111100
1111101110010011
1111110110100100
1111101101000000
1111100100110111
1111110001101111
1111110001111010
0001010001100100
1111110100110100
1111111111100111
1111011000100011
0000001100110110
0000000010000011
0000000101010101
1111111001010001
0000000100100010
1111111000000000
0000011000101111
0000000011000001
0000010111011011
0000000000000111
1111101011010000
1111111101110110
0000000011100001
1111111010011110
1111110100110001
1111111100000110
0000000001001011
1111110111010110
0000000011111011
0000001010111011
1111111011111001
0000011010111100
0000000101100000
0000000100101011
0000000110100110
1111001110110001
0000000111101010
0000000101010011
0000001110001111
0000010011111001
1111110011001100
1111101010111000
1111111011111100
1111111111100010
0000100001011001
0000000110100011
1111100000100110
0000100001000101
1111110000010011
0000000011100100
0000001101001111
0000000111100000
0000000100110111
1111111101001001
1111111100111001
0000000000110101
1111110111011001
0000100110110101
0000001000010011
0000011000101010
0000001111010010
0000000001001100
0000000100000001
1111101000101110
1111111111001011
0000000011010010
1111111010100101
1111110010100111
0000000000101011
1111110110111110
1111110000011101
1111100000001001
1111110010010100
1111110000111000
0000000101001100
0000000100010001
1111110110001101
0000000111011000
0000000110001101
0000000001110110
1111111011000101
1111111100101000
1111111101000001
0000100100100110
1111111101111000
0000001000000110
0000010111000101
0000101110000101
1111111110100101
0000010101010110
1111101101110101
1111010101010111
1111111010001010
1111111100101111
0000100011100110
1111111101010100
1111110100010110
0000000000111111
1111111010001100
1111100100110110
1111111111100000
1110110011010001
0000000110110111
1111110111101100
0000000100110100
1111111011000010
0000000000001101
0000000101001010
0000000001010111
1111111010110110
1111111111011101
0000000010010000
0000010010101101
1111111011100011
1111111111110000
0000000111000110
0000001001111001
1111111110010011
0000100110001000
1111110111011000
0000000111000000
0000000000010101
0000000000011101
0000000100110101
1111111010101110
0000000000010000
0000000111000001
1111111100011001
0000001101111001
1111111111111101
1111101001111001
1111111100100101
1111100001000000
1111101011110000
1111101111010101
1111101101010011
0000001100011011
1111101100110010
1111111111101111
1111111010000101
0000101110001001
1111111111011001
0000000010000100
0010000101000101
0000001101100100
1111110000111010
1111111111111001
0000000010110001
1111111101100001
0000000001001000
0000000101001001
0000010010011001
0000001110001110
0000010101100100
1111101001111001
0000100001011000
1111011000011001
1111100111011001
1111111000111010
0000001001010001
0000000010101101
1111111010000011
1111110010001010
1111010100110111
1111101100000100
1111111111011110
0000100010000000
0000010010110000
1111111100000011
0000000011010011
1111100110010000
0000011100011101
1111111101110100
0000010000101110
0000010000101111
1111101101010011
0000001010111110
0000000011100001
1111101110001110
0000011101011000
1111111010011101
0000000001110011
0000000011100010
1111100010101101
0000000111000110
1111111011110000
0000100000101011
1111111100111110
0000000111010011
1111011101100111
0000001100100110
0000000110111001
0000011011101001
0000001101110010
0000000000111011
1111100101001100
1111111110000011
1111110100001011
1111100011100001
0001100101011011
0000011010000010
1111111010010001
1111101111111110
1111110110000101
1111111010100111
1111111111111101
0000001110000001
1111110010011100
1111000101110000
0000010100000110
1111110010010101
1111011100011101
0000001000001101
0000001001110111
0000001010100001
1111110100010011
0000010010110010
0000000000000000
1111101011011001
1111101100011100
0000000101101111
1111111010001000
0000010101101000
0000000100111101
0000000101101110
0000000001000000
0000100111010111
1111000111001000
0000000101001110
0000001101000000
0000010010010001
0000000100011010
0000010000010100
1111101111010001
0000000000110100
0000100010101011
1111111101110011
0000001010101001
1111111000010111
1111101010011011
1111100100101100
0000001000110100
1111011011110101
0000010110011100
1111110011000111
1111111001000111
0000001111010100
1111110110001110
0000000011110001
0000000011110011
1111111011000111
1111110011110010
0000111001101000
0000000101001011
1111010101110101
1111111001000010
1111110111110111
0000101001010111
1111111011011100
1111101011010100
1111111010101100
1111010110110111
1111100010010100
1111110111010010
1111111001100011
1111110011000100
0000100000110100
0000010010010010
1111111011100111
0000100000110100
0000000111001001
0000000000001111
0000001111011010
0000000100011000
1111111010111000
0000010110010101
1111001011111110
1111111011001011
1111111100100010
1111111010101000
0000000011111111
0000000011011011
0000000010111101
1111110111011101
0000000110100001
1111111101001101
1111011001010000
0000000001101001
1111111101000001
0000000100110111
1111111100110010
1111101110110010
1111111000101111
1111101111000000
1111111010000010
1111111101000111
0000000010011101
0000000001110110
1111111111011110
1111111011000100
1111111110111001
0000100100011101
1111111101111000
0000000000111001
0000000011011101
0000000111110110
1111111111010111
1111111111111011
1111111111111100
1110111011010100
0001101010101001
1111111001110011
0000000000111001
0000100100010111
1111111111001000
1111111100000111
1111111010001100
1111111110111000
1111111000000101
1111111010101011
1111111110111010
1111111000001111
0000000001000000
1111110011000010
1111111100111000
1111111011101001
0000000100000110
1111111010110011
0000000000001011
1111111110100101
1111111011010111
1111111110100000
0000000101110011
0000000101100100
1111111101101011
0000000001100011
0000000100110001
1111111101101101
1111111110000001
1111111101100101
1111111011101011
0000000011001101
0000000101010010
0000000001000010
0000000001110000
1111111000011101
1111101001001010
1111110110000101
0000000110110010
0000000100100111
1111111001011110
1111101110100000
0000001010000011
0000001000010010
0001111110100000
1111111101001010
0000000010111010
0000001110010111
1111100111100010
0000000101000000
0000001001101101
1111110110010000
1111110110011111
1111111100001101
0000000011011000
0000000010000000
1111111111000000
1111111000100010
1111101100111011
0000000011000111
1111011110001111
1111111110010011
0000001001100010
0000000111001000
1111111100111001
1111110100010100
0000001011101011
1111101001110001
1111110000000111
0000001010110100
0000001010110111
0000010001111011
0000001100010101
1111111010010111
1111111011101010
0000001100001101
0000000000011110
0000001111111000
0000010011111011
1111111011111100
1111100011100010
1111110101110011
1111111010000001
1111101100101000
0000101000011111
1111111001100010
0000000101110011
1111110100100011
1111101011101100
1111110011111101
0000001001000110
1111111110011111
1111110110011001
0000000101101100
1111111011101110
1111110110011110
1111111110111011
0000000110010011
0000011101001000
0000000010000111
0000000001100011
1111111001110011
1111111001001110
0000000111010111
1111111011110111
1111101010010011
0000011101110011
1111110111001000
1111111010101100
1111101010010100
1111110110101101
1111110110101100
1111101111111110
1111101101011010
0000011011001011
1111100010000110
1111111011010000
0000000011001001
0000100001111100
1111110110001011
1111111110100110
1111111001110110
0000001100110011
1111101111001100
0000101000110000
0000011101000111
1111110111001100
1111110100011011
1111111110010000
1111111010011111
0000001011111110
1111100000000011
1111100110111100
1111111110000001
1111101010100100
0000000001111111
0000010101000011
0000000100101101
1111111101000101
1111111110111100
1111111100010001
1111101000101010
1111111011100111
0000001010110110
0000001000101000
1111110011111001
0000000101110000
0000001001111010
0001101100100101
1111111010111110
0000000000101110
1111110000110110
1111110100101111
1111111111011100
0000001101110101
0000000000010000
1111111101001101
1111111001001000
0000011001011100
1111110110110101
1111111111111010
1111000110010101
1111110110111011
0000001100010000
1111011100100011
1111111010001100
1111110111111110
1111100001101001
0000001000111111
1111110001010101
0000001101100001
0000000100100101
0000001100001101
1111011001100100
1111101010010100
1111110100110111
1111011101010111
0000001001001011
0000010110100000
0000010000010111
1111111101010111
1111111011100000
1111111011111111
1111111001110011
0001101010100011
1111111101101000
0000100110011000
0000010011101101
0000000111111100
0000001001001001
0000001100101010
0000001001101001
0000001101011001
0000001000111001
0000001110101001
1111100111011101
0000010011101001
1111110011101101
0000010000110001
1111001101000110
0000000100010001
0000010111011011
1111110011011100
0000010000100001
1111111010011101
1111011101110101
1111111100010011
0000000011101001
0000110010111101
0000011111100011
1111110001100111
1111110100000010
1111110000000010
1111011111000100
1111111111101100
0000010011100111
0000110011101010
1111110110000010
0000100101100110
1111110111110011
0000000101110000
1111010000111111
0000001000000111
0000001110111010
0000000011010100
0000001101011001
1111111100101100
0000000011000111
1111111010100111
0000001100110110
0000000001101101
1111111010110110
0000000101110101
1111100101101110
1111111000001011
0000001010111111
1111101010010001
1111010000001011
0000000000100000
0000001111111001
0000010111111010
1111111001100010
1111111101111010
0000000001011110
1111111000110000
0000001001101110
0000110001000110
0000000001100010
1111111011011001
0000000101011001
1111110101101111
1111111010010000
0000010101001010
0000000001100110
1111111001010001
0000000100000011
0000000001011011
1111111110101010
0000000010000001
0000000000001011
1111111110110101
0000000000101111
0000000000011000
0000000000100100
0000000000100010
0000000000000100
1111111111100111
1111111111111110
1111111111100011
1111111100011011
0000000000000111
1111111111110011
1111111111011010
1111111111000101
1111111111100011
1111111111110001
0000000001011011
0000000000100011
0000000100000100
0000000001000111
1111111110011100
0000000000000101
1111111111111010
0000000001011001
0000000000010001
0000000000111001
1111111110110110
0000000000011010
0000000000000101
0000001111111101
0000000010010100
1111111100011101
0000000100101100
1111111110000010
0000000000011001
0001100111000001
0000000001110110
1111111101100101
0000000011000101
0000000110110001
1111111000010101
1111110011000010
1111100110011110
0000001010000111
1111111010011011
0000001110010110
0000000001111111
1111111101111111
1111111001110001
0000000011110110
0000000001110011
1111111111000010
1111100001001001
0000000111110011
1111110101001001
0000000101111110
1111111101011110
1111111011110001
1111111110011111
0000000111101001
0000000000110100
1111111111110010
0000001100111111
0000000001100100
1111111110100000
1111111101100110
1111110011000010
0000000011101000
1111111101010110
1111101111111000
1111110000101111
1111110011101110
0000100010001000
1111110001100110
0000001000100000
1111111101100011
0000001111000001
1111111100101111
1111101111111001
0000011010101001
1111110111000101
1111111000100100
0000110000110010
0000000001110011
0000000001000011
0000010010111101
1111111001011100
1111111001111110
1111100110101010
1111111000100110
1111111001010011
1111111110001001
0000000000000001
1111110001000000
0000000111000111
1111101100100111
1111110101001110
1111111001001101
0000000100110111
0000010110001101
0000010000010010
1111101101100101
1111111100001011
0000000001000101
0000000100101011
1111111110000011
0000101011100101
1111100110110100
1111101010100010
1111110100100001
1111111101000101
1111110001010001
0000001111111101
1111111010010110
0000010111011100
1111111011010101
1111100110111101
0000000111000010
0000000111111111
0000000011010010
1111111101111101
0000001000110000
1111111001100101
1111101100101011
0000001111011011
1111111111101101
1111101001111011
0000000001011110
1111100100001000
1111111111010110
1111110011100000
1111111110010100
1111101110001000
1111010011101101
0000110101110011
1111101010001111
1111011000011100
1111100011000000
0001001010100000
1111110001101101
0000001100011110
0000100110100011
0000101101001110
1111001011011101
0000001011111111
0000000010011011
1111101111000110
1111101011111111
0000001111000011
1111101001001101
1111110010010100
0000011010011010
0000011111111010
0000001111111101
1111110000111011
1111110000001111
1111110100111101
1111000111011011
0000000111110110
0000110010111011
1111011100010100
0000101111101110
1111111110010111
1111100111110111
0000011011111001
1111110001011100
1111110001110011
0000000101001010
0000000100000110
1111101010101010
0000000011101010
1111101100101111
1111100000001001
1111100110011001
1111101111000101
1111011110111110
0000110010100110
0000000100001001
1111111111111100
0000000101010111
0000101000011010
0000000000011110
0000100101110010
0000000000011101
1111111100100111
0000000111011111
1111110111111000
0000001001100010
0000001110110101
0000000100100010
1111111111110110
1111111111010010
1111101001011001
1111110001001101
1111110011110101
0000000101000011
1111110011111010
0000100011101001
0001000000111010
1111111101101100
0000001101011010
1111101110100000
1111100001010111
1111111010110111
1111110000001100
0000000110001101
0000101011011101
0000001100110010
1111110111011111
0000001010101001
1111110010010101
1111110110010101
1111110001111110
1111110101100010
1111111100011100
0000011100001000
1111101101101110
1111111101100111
1111111001010101
1111111010011100
1111111010100010
1111010011101110
1111110110010000
0000001010110000
1111111110010001
0000001010110000
1111110001101100
0000001101011011
0000010101110000
1111111110101110
0000010101101100
1111110000011100
0000000101001100
1111100001010010
0000000010010010
0001011101111000
1111101101111011
0000000100110110
0000000111110111
0000001011011110
0000000100111010
1111101100111101
0000000101111101
1111110000011010
1111110000001011
1111111011010110
0000001100000100
1111111100110100
1111111111000101
1111110111111101
1111100011101101
1111111001110000
0000000000010100
0000001101011000
0000001001111010
0000000111111010
1111010010001111
1111111100011001
1111111100111101
1111100111100000
1111111010010101
1111101000000110
1111100110010001
1111111111000000
1111111110011100
1111100010000000
0000001101100010
0000001110001010
0000110100111111
1111111010000011
1111100011010100
1111011000101100
1111111010110100
0000000100100000
0000000011011101
1111110101010110
0000111001000001
1111110111000000
0000111100100001
0000000000010011
1111111110100111
1111110011110011
1111110000101010
1111110000001010
1111101111011011
0000000000010100
1111111101110100
0000000001110101
0000000110110010
1111111111100001
1111111100000011
0000101110010110
1111111111011111
1111111101101110
0000000001100010
1111111111100000
1111111111011011
0000000000100011
1111110100100110
0000000000001001
1111111010111001
0000000000110010
1111111111100001
0000000010010011
1111110111110010
0000000000011000
0000000010100010
1111111011101001
1111110100010010
0000000101100111
1111111100011010
0000000011110110
0000000010011111
1111111100101111
0000000001000101
0000000010010011
1111111101101100
0000001001011101
0000000001110010
1111011100010011
1111111111011100
1111111110000100
1111100001111000
1111111000110011
1111110101010010
0000001100001001
1111111000010000
1111100110100110
0000000011010001
1111010011000110
0000001101010000
1111110111110110
0000001010110000
1111110000011111
1111101011101001
1111110010001110
0000100111100111
1111110110001111
1111111000101100
0000110101010110
0000001010101000
1111111101011110
0000011111000100
1111111100000101
0000000010100110
1111100111001101
1111111010000011
0000011111010110
0000001011110100
0000100101001100
1111111100000000
1111111011010010
1111110010101001
1111111001110000
1111111011101101
1111100110010111
0000000011110111
1111111100101111
1111111100111001
0000000011011011
1111110001101001
1111100000110010
1111101001001011
0000011110110111
0000001010010101
0000001000000010
0000001110100111
0000001011110110
1111110101100101
0000001100110110
1111111111111011
1111110111010100
0000111101000000
1111101001100100
1111011100000111
0000001000000111
1111111100010100
0000001011101101
0000000100000111
1111111101101011
1111111100101110
1111111011010011
1111101111111110
0000001010111110
0001000001001100
0000001101001110
0000011001001000
1111110001011100
0000001111101000
1111100101001011
1111011011011011
0000001101111011
0000000011100000
0000010101100100
1111110010100110
0000000111100001
1111001000111110
1111101110101101
1111100100101110
1111101000101011
0000011011000110
1111100010000011
1111110010010110
0000011110001101
0000111100010000
1111111000100110
1111110100010110
1111110010010111
1111111011100010
1111100011001100
0000001111111101
0000010010100111
0000010010010110
0000001010001100
0000001011011110
1111111011000000
0000000101010000
1111101110100101
1111100011101100
1111111100000100
0000111101001011
0000000110001000
0000000010110110
1111110110010001
1111111011010011
1111100100000000
0000000100110010
1111110110000111
0000000011100001
1111111010010101
1111111110000011
0000000100001001
1111101111100110
0000000110101001
1111111011001111
1111101001100001
0000000111010001
1111111001111100
0000010100110110
0000000000110000
0000000100000101
0000000100110010
1111111000000001
1111111111011011
0000101110101011
1111111011011100
0000010100101011
0000010001011110
1111111001100011
0000000010110001
0000000010100010
0000001001101100
0000000001010001
1111110111110000
1111111011011000
1111111111010110
1111111100010100
1111100101001101
0000001001101010
0000000011010011
0000000110100000
1111111100001011
1111111011000010
0000000000110101
1111111110011101
0000000010100000
0000001010111101
1111111110100001
1111100111100011
0000001000001010
1111111000011100
0000000100101010
0000000111001100
0000000000100010
1111111111110001
0000000010011100
0000000010000111
1111111000000001
0000001110011001
0000000100110000
0000000101000110
0000000100011011
1111101100101110
0000000001011010
1111110110110011
0000011111000001
1111110100001111
1111111000000101
0000000100001100
1111111110110000
1111110100101110
1111111101010011
0000001001000001
0000001001101101
0000001011000101
1111101100001110
1111110101110000
0001000110010011
1111111111000101
1111111000110100
0000001100111000
0000000001000010
1111101000010011
1111111100111011
0000001001010111
1111110000100110
1111110110110001
1111110110110000
1111110011011110
0000010110101111
0000010110100100
0000000000101001
1111111010110010
1111110111011001
1111111100110011
1111100110101110
1111110110010001
0000011001000010
1111100000110101
1111111101000110
0000010011001111
0000011100101101
1111110000010011
0000010111000100
1111110010100110
1111100110001010
1111101000010011
0000000010011010
1111111000110101
0000100100011000
0000001111011110
1111110111001011
0000111001111001
0000001001111111
1111100001100100
1111101010010101
1111111000010001
0000100001100001
1111110110100101
1111111011001011
1111110011111101
0000000000100101
1111110000000100
0000001000011001
1111111101010100
0000000010000101
1111111011010011
0000000111000101
1111111110000001
0000000000100111
0000001011111001
1111111111100110
0000010101100111
1111101101100110
1111111011001100
0000000100010001
0000001000110000
0000000100001100
1111111001100101
1111110101100101
1111111001100101
0000000001000110
1111111010110011
0000000000110011
1111111100000100
0000101110100001
0000000010110000
1111110101100001
1111101100000001
0000000100010010
0000000100011100
0000000000000010
0000000100000110
0000000001101111
0000010011000100
1111110101001010
1111010100000110
1111101001100111
1111101000001110
1111011011011100
1111101010111110
0000011101110001
0000101101100101
1111110010011110
1111111100011000
1111010110100001
1111101010011110
1111111110001011
1111111001111011
0000101101100101
0001001101110101
0000111111001110
1111111100110101
1111111110010000
0000000111110111
1111100101101001
0000010010000000
0000000100001110
1111101110000100
0000010010001010
0000000000011110
1111111100011100
1111111011110111
1111110110011001
1111110010100111
1111110010110111
0000000101010001
0000000100101000
0000010001001110
0001001101100100
1111101110011000
1111111100100100
1111111101011101
1111111100100011
0000000110011000
1111111111111011
1111111001110100
1111100000111010
0000000111000101
0000010000101100
1111111000110010
1111110100101010
0000000001111011
1111111100101100
1111110100011110
1111110010111011
0000000110100111
1111101111011100
0000000110111001
0000000001101101
1111111100001011
1111110100011000
1111111100001000
0000000111110000
0000111010111001
1111110111111010
1111110110010011
1111111001011111
0000000100100011
0001100010101011
1111101011011000
0000000001000111
1111110110011110
1111110001101101
1111110111110001
0000000000101000
1111111110100111
1111111000000001
1111111101100001
1111101110010011
1111111010011010
0000001101000000
1111111010110110
0000000111010001
0000010001000010
0000010000100001
1111101001010001
1111111100000001
0000000011110110
1111110010011111
1111111001001011
1111111010000011
0000010100100000
0000000011110010
1111111111001110
1111110001000110
0000000101001010
0000000101000110
0000000101010011
0000011011010001
1111110110111101
1111110001110010
1111101010101101
1111110100011001
1111110010000011
1111100100101110
1111111011110100
1111110011001000
0000001100011101
1111110110011101
1111101101101001
1111011101100001
1111110011100100
0000000101100010
0000100110011010
1111111100111000
0000010001111000
1111111111001101
1111101001001111
0000001000100001
0000010011011000
1111110111111101
0000011101011010
0000100110010011
0000011101000101
1111110010101000
0000001100100110
0000000011000100
1111111100110010
1111111110010100
1111111011000101
1111111111010101
0000000100010001
1111111110010101
0000000110100110
0000000000100111
0000000100010010
1111111110111100
0000000011001101
0000000100000101
1111111101110010
0000000101111101
1111101100011001
1111111101100111
1111111101001110
1111111100101001
1111110011010010
0000000101101110
1111111110111100
0000000010011101
0000000100111010
0000000010011000
0001111100111000
0000000100001111
0000000010101101
1111000110101111
0000000000000000
1111111101010110
1111111001111001
1111111101010110
0000000100000110
0000000100101001
0000000001100001
1111111000101000
1111001110110100
1111111101101000
0000000111110101
1111111000011001
0000000100000111
0000001000000011
1111111110011100
0001001110110010
0000001000111011
0000000010011000
0000010000101101
1111010111000000
1111110101001000
0000000101101010
1111111001011101
0000000100011101
1111110100100000
1111110111010100
1111111001110100
0000000110111111
0000000001100101
1111111010100011
1111111010000101
0000000110010110
0000001010111101
1111110100011111
1111110100000111
0000001101011100
0000000100010101
0000000001001000
0000000011000110
1111110101011101
0001111011000101
0000000001001010
0000000110110111
1111111110110101
0000000110100011
1111110111001100
0000000011101000
1111101010000001
1111111110000101
1111111110010010
1111101000101111
1111111010010001
0000000010111001
1111110101110110
1111101111001100
1111111100011100
0000001011100010
0000000001010101
1111111110110110
1111111100111101
0000000110010111
1111111110000001
1111110111110010
0000000000011110
0000000101111000
0000001001111100
1111111001100010
1111111010000000
1111111111100101
0000000100101111
0000000001101101
1111110001000101
1111101110001001
0000000101000111
1111111011100001
1111111111001000
1111111011111110
0000010010101010
0000000001111100
1111110010100111
1111110100001100
1111111110000111
1111110001100001
1111011101100011
1111111100100011
1111111001101000
0000001000111110
1111111101110101
1111100011010111
0000011010100110
0000000011000100
1111110110011001
0000011000101111
1111111010110001
0000000000000000
0001110001110010
1111101101001100
1111111010001001
1111100001111011
1111111010010101
0000000010100100
0000000101110111
0000001001101000
1111111110011100
1111110110111010
0000000110111111
0000000101101010
1111110101011100
1111111011010100
1111111010110100
1111100100010110
1111110111100010
0000000101000111
1111100010010001
1111110110010100
1111011100000111
1111011101010000
1111110001100111
0000001101100000
1111010110000100
1111110110101001
0001110100000110
1111111001001001
0000010000111100
0000000011001111
1111110010010111
0000010111011110
0000001000001001
0000010101101001
1111111101101101
0000010100110110
0000101111111111
1111101011011010
1111101000011101
1111101100111101
0001010011111110
0000001110111100
0000000111101111
0000001101010111
0000001010000011
0000010011001000
0000000000001010
1111111010101001
0000001010111110
1111110010010100
0000000010101111
1111110101111010
1111100101000000
0000000001100101
0000100110111100
0000000111100110
1111111000110000
1111111110011001
0000000111110111
1111111001000010
0000010000101011
1111111011001110
1111111010111100
1111011100010000
1111110010110000
1111001011010101
0000000100101011
1111111001000100
0000001000111011
0000000011100111
1111111100101000
0000000010010010
0000011101101000
0000000011110111
0000101000000101
1111110010100001
1111101001010111
1111110100010111
0000000011110010
0000010001011011
0000001001010010
0000000000110100
0000101010111101
0000000100011010
1111001111101100
0000001011001101
1111001000011100
1111111001100111
1111111000000000
0000001101100010
1111111101100010
1111110011101111
1111111110101101
1111111101101100
1111110000100100
1111110101101001
1111111011100011
0000010011011110
1111110101000011
0000000011010011
1111110110111111
0000111000111111
1111101101011110
1111111100000000
1111011101000111
0000001011100100
0000000001000001
0000001011001001
0000000101011010
1111100001100011
1111110000011101
0000000111001100
1111111101101011
1111111100001001
1111101101100010
0000001100000111
1111010111100010
0000010001001101
0000111100010111
0000001100111110
1111100111001010
1111101110010011
1111100111100110
0000001100011011
1111110010110100
0000000011110101
1111111100100100
0000100000001110
1111111100100110
0000010001101010
0000000000000011
1111110101000100
1111110111000010
1111101000001001
1111110011001111
0000101010111110
1111110000111100
0000000111110000
0000001101010111
0000000010001000
1111111100101001
0000010001100110
0000000100000110
1111111000101101
0000000100011010
0000000101100110
0000000010010011
1111111101000000
1111010111100001
1111110001100101
1111100101000000
1111111110111010
1111110111010110
0000000110001101
1111111000000101
1111111011000111
0000000000000001
0000000000101011
0001100100000111
0000000110100001
0000000000000010
1111111010101001
0000001110111011
0000000000011000
0000001011111000
1111011110011000
1111101011011101
1111110100100101
0000010001111011
1111110110111110
0000000110100000
1111101000101000
1111111010011001
0000000001111011
0000000011010001
1111111100001111
1111101101010000
0000110000011000
0000000010010001
1111100100010101
0000001000101011
1111111101101000
0000000000001001
1111101000111100
1111111011011110
0000110011100011
1111000101000100
1111111101100101
1111101100100000
1111111010011101
1111111111101000
0000000000000010
1111101011000100
0000010011010100
0000000111101000
0000111111111001
0000001010001000
0000001100001111
1111111110001101
1111111100001100
0000010001010100
1111101100100100
0000000100001000
1111111011011101
1111111100111011
0000000000000110
0000000110001100
1111111110010011
0000001101011000
0000000011100100
0000000010110000
0000000011000101
1111101101100100
0000001010101001
0000001011100011
0000001001101111
0000000011000111
1111111111101000
1111111110001101
1111111011000100
1111111100100110
1111111100000001
0000000001101010
1111110010001101
1111111111111010
1111110100011000
0000000010011110
0000000111010100
1111111101101011
0000000111111111
1111111110010101
1111111011111101
0000000010100111
1111100100000010
0000000101000110
0000000010110011
0000001010001110
1111111101100101
1111111010111101
0000001000011111
0000001101011011
0000000111011101
1111111100010011
1111100101010110
0000000001001101
0000000111110011
1111110011101101
1111111110110110
1111111000011011
0000011101101111
1111011110110011
0000000011000000
1111110100111001
1111000111000011
0000000000100101
1111111011101011
0000110000000010
0000001010010001
0000000110010001
0000101110000101
1111110100011100
0000000001101010
0000000110010010
0000001001010010
1111110111100011
1111110011011110
1111101000111011
1111111111110101
0000001111111011
0000000100010110
0000100110110101
0000000101000111
1111101111001010
1111110111000000
0000000010000100
1111101011001010
1111101011001110
0000010110111001
0000000000001101
1111111011010101
1111110101010100
1111101011101001
0000001000111111
0000011100010011
0000011011101111
0000000011010010
0000000010000110
1111011101001000
0000001010100100
0000001110110010
1111110010110110
0000011010100000
0000010111111101
1111111100000010
1111111101101101
1111110010100101
0000000001010111
0000000001100000
1111111000110110
0000000101011011
1111111001011110
0001101101101100
0000000001110010
1111100110101000
1111111100111100
1111111000110101
1111100110100111
1111111011101011
1111011011010101
1111101110100111
1111011111110011
1111111011011110
0000000001111111
0000000101011001
0000000100000101
0000010001111111
0000001000001010
1111111001111100
0000000110101001
0000000010110010
1111111110101011
1111111011100010
0000010101011010
1111111000100110
0000001010110001
1111100110100010
0000000100100010
0000000000101101
1111111111110011
0000000000000011
1111110111100101
1111111100100000
0000000000011000
1111111010111000
1111110110010011
0000001101100100
1111110100001111
0000000001010001
1111111101000101
0000000000001111
1111101100011111
1111111011101100
1111111001000101
0000000000000001
1111111111001111
1111110110001011
1111111000001001
0000111011000010
0000011110000100
1111111001001011
0000000100110100
0000000111011010
0000000000010001
1111111000000101
1111111001100100
1111111100111011
0000011010000010
1111110111101111
1111110111100111
1111111111001000
