00000000000000000000000000010100
11111111111111111111111111001001
00000000000000000000000001100001
11111111111111111111111110110100
11111111111111111111111111100110
11111111111111111111111110000101
00000000000000000000000000111110
00000000000000000000000001010000
00000000000000000000000001101001
00000000000000000000000001000000
00000000000000000000000001111100
11111111111111111111111101001000
00000000000000000000000011101000
00000000000000000000000110100000
00000000000000000000000000000110
00000000000000000000000001001001
00000000000000000000000001111000
11111111111111111111111110011111
11111111111111111111111111011101
00000000000000000000000010011110
00000000000000000000000000000111
00000000000000000000000101100010
00000000000000000000000101010101
00000000000000000000000001100111
11111111111111111111110111111101
11111111111111111111111111010111
00000000000000000000000011101010
11111111111111111111111101001011
00000000000000000000000101111000
00000000000000000000000001011000
11111111111111111111111110010001
00000000000000000000000001011110
00000000000000000000000001001011
00000000000000000000000000001011
00000000000000000000000010111111
00000000000000000000000000111000
11111111111111111111111110010000
00000000000000000000000010010110
00000000000000000000000101110110
00000000000000000000000010010011
00000000000000000000000011100011
00000000000000000000000001111000
11111111111111111111111111111111
00000000000000000000000001000101
00000000000000000000000001001111
00000000000000000000000000001101
00000000000000000000000010100000
00000000000000000000000010010010
00000000000000000000000000110110
00000000000000000000000001111111
00000000000000000000000110101110
00000000000000000000000010100110
11111111111111111111111110010100
11111111111111111111111110011000
00000000000000000000000010001001
11111111111111111111111111011011
00000000000000000000000000001111
00000000000000000000000000110010
00000000000000000000000100011101
00000000000000000000000011001001
00000000000000000000000001000110
00000000000000000000000001100101
00000000000000000000000001101110
00000000000000000000000011010110
00000000000000000000000000011000
11111111111111111111111111111011
00000000000000000000000001010011
11111111111111111111111101101110
00000000000000000000000001100001
00000000000000000000000000001110
00000000000000000000000010010001
00000000000000000000000011010100
11111111111111111111111111100001
11111111111111111111111111110101
00000000000000000000000001101101
11111111111111111111111110000011
00000000000000000000000001000110
00000000000000000000000001110000
00000000000000000000000000001001
00000000000000000000000000001111
00000000000000000000000001010101
00000000000000000000000010110011
00000000000000000000000000011101
00000000000000000000000010011101
00000000000000000000000000111011
00000000000000000000000100001001
00000000000000000000000000111101
00000000000000000000000011101011
11111111111111111111111111100010
00000000000000000000000000000000
00000000000000000000000010000101
00000000000000000000000000000101
11111111111111111111111111001000
00000000000000000000000101000100
00000000000000000000010010001110
00000000000000000000000011010000
00000000000000000000000010110010
00000000000000000000000100010010
00000000000000000000000010111001
00000000000000000000000000111011
11111111111111111111111111011100
00000000000000000000000000001100
00000000000000000000000001101100
00000000000000000000000000110110
00000000000000000000000011101010
00000000000000000000000100111111
11111111111111111111111111111011
00000000000000000000000011001010
00000000000000000000000000100010
00000000000000000000000001110001
00000000000000000000000000000000
11111111111111111111111111111111
11111111111111111111111111100011
00000000000000000000000000001110
11111111111111111111111011111011
00000000000000000000000101000011
00000000000000000000000001001011
00000000000000000000000000111000
11111111111111111111111111001110
00000000000000000000000101010110
11111111111111111111111101100000
00000000000000000000000010001111
00000000000000000000000010001010
00000000000000000000000001010111
00000000000000000000000000010011
00000000000000000000000000111110
00000000000000000000000001001110
00000000000000000000000011011000
00000000000000000000000000001001
00000000000000000000000001010011
00000000000000000000000011111110
00000000000000000000001010110011
00000000000000000000000010001010
11111111111111111111111111001101
00000000000000000000000001100010
00000000000000000000000000000010
00000000000000000000000001101011
00000000000000000000000001101010
11111111111111111111111111110111
00000000000000000000000100010000
11111111111111111111111110100001
00000000000000000000000011100100
00000000000000000000000000010110
00000000000000000000000101011111
00000000000000000000000000100010
00000000000000000000000001100000
00000000000000000000000000010000
00000000000000000000000000111000
00000000000000000000000010100100
00000000000000000000000011000110
00000000000000000000000001011010
00000000000000000000000010111010
00000000000000000000000011011100
00000000000000000000000010000100
11111111111111111111111101101001
00000000000000000000000101001100
00000000000000000000000010001011
11111111111111111111111101001010
11111111111111111111111110011110
00000000000000000000000011000011
00000000000000000000000000100111
00000000000000000000000000100110
00000000000000000000000001110111
00000000000000000000000001011010
00000000000000000000000000100111
00000000000000000000000110111011
00000000000000000000000001111010
00000000000000000000000010001011
00000000000000000000000011000011
00000000000000000000000011001001
11111111111111111111111111011000
00000000000000000000000000001011
11111111111111111111111111001101
00000000000000000000000100001101
00000000000000000000000101000111
00000000000000000000000000110110
11111111111111111111111111110000
00000000000000000000000011101010
00000000000000000000000100100001
00000000000000000000000010100010
11111111111111111111111110101010
00000000000000000000000001101010
00000000000000000000000000000101
00000000000000000000000011111100
00000000000000000000000010101100
00000000000000000000000010000011
00000000000000000000000001111000
00000000000000000000000001101110
00000000000000000000000000111010
00000000000000000000000000011001
00000000000000000000000100110110
00000000000000000000000010010000
