11111111111111111111111111111111
11111111111111111111111110100101
00000000000000000000000001010000
00000000000000000000000111011110
11111111111111111111111101100010
11111111111111111111111101111100
11111111111111111111111110111010
00000000000000000000000000011001
11111111111111111111111111100110
00000000000000000000000000000000
11111111111111111111111110001011
11111111111111111111111101011001
11111111111111111111111101111001
00000000000000000000000000010111
00000000000000000000000011101100
11111111111111111111111110010011
11111111111111111111111111000000
11111111111111111111111101100101
11111111111111111111111111010000
11111111111111111111111111111111
00000000000000000000000110000100
00000000000000000000001000011011
11111111111111111111111011101100
00000000000000000000000010101010
11111111111111111111111101111010
11111111111111111111111010111100
00000000000000000000000000101001
11111111111111111111111101001101
11111111111111111111111110110111
11111111111111111111111100101001
11111111111111111111111111111111
00000000000000000000000000000000
00000000000000000000000111100001
11111111111111111111111001100111
11111111111111111111111101111010
00000000000000000000000000000000
00000000000000000000000000000000
11111111111111111111111001111000
00000000000000000000000001101111
11111111111111111111111111111111
11111111111111111111111100010000
11111111111111111111111100011100
00000000000000000000000010000011
11111111111111111111111110000100
00000000000000000000000101011011
11111111111111111111111011001101
11111111111111111111111100110011
11111111111111111111111111111111
11111111111111111111111111111111
11111111111111111111111110010000
11111111111111111111111101111001
11111111111111111111111110000000
11111111111111111111111100100011
11111111111111111111111111111111
00000000000000000000000011110110
11111111111111111111111111111111
00000000000000000000000000000000
11111111111111111111111101000101
00000000000000000000000100001011
11111111111111111111111111101100
11111111111111111111111101010000
11111111111111111111111110100001
11111111111111111111111101110011
11111111111111111111111111111111
