00000000000000000000001000101010
11111111111111111111111111001110
11111111111111111111111111100001
00000000000000000000000000000110
00000000000000000000000000010110
00000000000000000000000001111010
00000000000000000000000001100010
11111111111111111111111111011110
00000000000000000000000001010011
00000000000000000000000011010000
11111111111111111111111111111110
11111111111111111111111111000101
00000000000000000000000010101100
00000000000000000000000001100001
00000000000000000000000000110011
11111111111111111111111111111011
00000000000000000000001011011010
00000000000000000000000000011100
00000000000000000000000001100111
11111111111111111111111111001101
00000000000000000000000101101011
00000000000000000000000000010010
00000000000000000000000000110001
00000000000000000000000001100010
11111111111111111111111111111010
00000000000000000000000100010011
00000000000000000000000000100010
00000000000000000000000010011110
00000000000000000000001000010011
11111111111111111111110101110010
00000000000000000000000001001100
11111111111111111111111110010001
11111111111111111111111101111000
11111111111111111111111100011000
00000000000000000000000001101001
00000000000000000000001010101101
11111111111111111111111111111000
00000000000000000000000001001110
00000000000000000000000110010010
00000000000000000000000001100111
11111111111111111111111011000110
00000000000000000000000000001001
11111111111111111111111100101111
11111111111111111111111111100001
00000000000000000000000011101001
00000000000000000000000000010110
00000000000000000000000000010101
00000000000000000000000111101001
11111111111111111111111101100001
00000000000000000000000010000110
11111111111111111111111110001101
00000000000000000000000000011111
11111111111111111111111111001010
00000000000000000000000010001101
00000000000000000000000000011011
11111111111111111111111110110000
00000000000000000000000000010110
00000000000000000000000010100110
00000000000000000000000001011101
11111111111111111111111111101101
00000000000000000000000010101010
00000000000000000000000010101100
00000000000000000000000011110110
00000000000000000000000101010000
00000000000000000000000111000001
11111111111111111111111111110001
00000000000000000000000000011100
00000000000000000000000001001111
00000000000000000000000000000100
00000000000000000000000000011000
00000000000000000000000001111110
00000000000000000000000000000100
00000000000000000000000011101110
00000000000000000000000000110101
00000000000000000000001000110100
00000000000000000000000000001001
11111111111111111111111111011001
11111111111111111111110110111011
00000000000000000000000001001000
00000000000000000000000011101100
00000000000000000000000100010001
00000000000000000000000001011000
00000000000000000000000000111010
11111111111111111111111111110111
11111111111111111111111110110000
00000000000000000000000000100010
11111111111111111111111101000101
00000000000000000000000001111011
00000000000000000000000010111111
00000000000000000000000010010100
00000000000000000000000011011011
00000000000000000000000000010011
00000000000000000000000010110101
11111111111111111111111111010001
00000000000000000000000010100011
00000000000000000000000000001111
11111111111111111111111111110110
00000000000000000000000000001010
00000000000000000000000000000000
00000000000000000000000010011001
00000000000000000000000000100111
00000000000000000000000000111111
00000000000000000000000010011011
11111111111111111111111111100100
00000000000000000000000000101111
00000000000000000000000100100010
11111111111111111111111111001010
11111111111111111111111101101101
00000000000000000000000001100011
11111111111111111111111111101011
00000000000000000000000000101011
00000000000000000000000001011011
00000000000000000000000000110010
00000000000000000000000010001101
00000000000000000000000001101101
00000000000000000000000101000101
11111111111111111111111011110011
00000000000000000000000000001100
00000000000000000000000001111100
00000000000000000000000000110111
00000000000000000000000000001110
00000000000000000000000001111100
11111111111111111111111001011111
00000000000000000000000100011101
11111111111111111111111011011111
00000000000000000000000100011000
00000000000000000000000011001001
00000000000000000000000000011001
