00000000000000000000000011010000
00000000000000000000000001010010
11111111111111111111111110010110
11111111111111111111111100010011
00000000000000000000000001100100
11111111111111111111111110010010
00000000000000000000000010001010
00000000000000000000000001011010
11111111111111111111111110000011
00000000000000000000000010101010
00000000000000000000000010111010
11111111111111111111111100100110
11111111111111111111111110100010
11111111111111111111111101110111
00000000000000000000000001111011
11111111111111111111111110101000
00000000000000000000000001110010
11111111111111111111111101110010
11111111111111111111111111010100
00000000000000000000000000010011
11111111111111111111111100111101
11111111111111111111111110001110
11111111111111111111111111011010
00000000000000000000000001000100
11111111111111111111111110000011
11111111111111111111111100001111
11111111111111111111111110000001
11111111111111111111111100101111
11111111111111111111111100101001
11111111111111111111111111001100
11111111111111111111111100100110
00000000000000000000001010001001
00000000000000000000000001100011
11111111111111111111111110101101
11111111111111111111111100110011
00000000000000000000000001000111
11111111111111111111111011101000
00000000000000000000000010110100
11111111111111111111111101101111
11111111111111111111111101001010
00000000000000000000000010000101
11111111111111111111111101111110
00000000000000000000001011100010
11111111111111111111111101100000
11111111111111111111111101100011
00000000000000000000000000110111
00000000000000000000000001110011
00000000000000000000000001111010
00000000000000000000000010001001
11111111111111111111111110001011
11111111111111111111111100111010
00000000000000000000000000110001
11111111111111111111111111110111
00000000000000000000000000100101
00000000000000000000000001010011
00000000000000000000000010010011
11111111111111111111111100111010
00000000000000000000000000111010
11111111111111111111111101010011
00000000000000000000000010001100
11111111111111111111111011010001
11111111111111111111111111010011
00000000000000000000000001011111
00000000000000000000000000111111
00000000000000000000000001010111
00000000000000000000000000111100
11111111111111111111111110101010
00000000000000000000000000010100
00000000000000000000000101000100
00000000000000000000000101111010
11111111111111111111111101110001
11111111111111111111111111101000
11111111111111111111111101100110
00000000000000000000000001011001
00000000000000000000000001001011
00000000000000000000000001010111
11111111111111111111111111110010
00000000000000000000000000100011
00000000000000000000000101101100
00000000000000000000000100100001
00000000000000000000000011101111
00000000000000000000000010011000
11111111111111111111111111010010
00000000000000000000000000011010
11111111111111111111111011011000
00000000000000000000000000110000
11111111111111111111111110110010
11111111111111111111111111100001
11111111111111111111111111010011
11111111111111111111111110011001
00000000000000000000000001110011
11111111111111111111111100100000
00000000000000000000000000110011
11111111111111111111111111101011
11111111111111111111111110010011
11111111111111111111111101011011
00000000000000000000000010110001
11111111111111111111111111000010
00000000000000000000000011000110
00000000000000000000000001011110
11111111111111111111111111101010
11111111111111111111111111011111
00000000000000000000010011011111
11111111111111111111111100010101
11111111111111111111111101011111
11111111111111111111111111110101
00000000000000000000000001100001
00000000000000000000000010000010
00000000000000000000001011101101
00000000000000000000000101101001
11111111111111111111111110110000
00000000000000000000000100001011
11111111111111111111111100101010
11111111111111111111111110000001
11111111111111111111111101101100
11111111111111111111111100110000
00000000000000000000000000111100
11111111111111111111111100111011
00000000000000000000000011100010
00000000000000000000000000010000
00000000000000000000000000011001
11111111111111111111111111011011
11111111111111111111111100101101
11111111111111111111111101100100
11111111111111111111111110000001
11111111111111111111111101111101
11111111111111111111111011100110
11111111111111111111111111001111
00000000000000000000000001001000
00000000000000000000000010101111
11111111111111111111111101011010
00000000000000000000000011100000
00000000000000000000000010111010
11111111111111111111111111011011
00000000000000000000000000010011
11111111111111111111111110111111
00000000000000000000000001011111
11111111111111111111111110101000
00000000000000000000000000111100
11111111111111111111111110100111
00000000000000000000000001010010
00000000000000000000000001101111
11111111111111111111111100001110
00000000000000000000000011001010
00000000000000000000000010111110
00000000000000000000010000101000
11111111111111111111111101101001
11111111111111111111111011001011
00000000000000000000000001010111
00000000000000000000000100111010
11111111111111111111111100001101
00000000000000000000000010101110
11111111111111111111111111110010
11111111111111111111111100111011
11111111111111111111111011010110
00000000000000000000000001001010
00000000000000000000000001111001
11111111111111111111111101010110
11111111111111111111111001101110
11111111111111111111111111100101
00000000000000000000000001100011
11111111111111111111111101010100
00000000000000000000000000100010
00000000000000000000000100100101
00000000000000000000000010001101
11111111111111111111111100001100
00000000000000000000000011110001
11111111111111111111111110011110
11111111111111111111111111001101
11111111111111111111111101010000
00000000000000000000000000001101
00000000000000000000000001011100
11111111111111111111111011111001
00000000000000000000000010111000
11111111111111111111111101010101
00000000000000000000000001101101
00000000000000000000000110010001
11111111111111111111111110101010
00000000000000000000000001000101
11111111111111111111111110010010
00000000000000000000000000010000
11111111111111111111111100011111
00000000000000000000000101001010
00000000000000000000000001010000
11111111111111111111111010110101
00000000000000000000000100101011
00000000000000000000000000010011
00000000000000000000000001010000
00000000000000000000000011010000
11111111111111111111111101100111
11111111111111111111111111100101
00000000000000000000000011001100
11111111111111111111111100011001
00000000000000000000000001011001
11111111111111111111111010011110
11111111111111111111111111111000
11111111111111111111111101011000
11111111111111111111111110100100
00000000000000000000000100111100
00000000000000000000000011000000
00000000000000000000000110111010
11111111111111111111111111000011
11111111111111111111111011011010
00000000000000000000000010010110
11111111111111111111111101001010
00000000000000000000000000101001
00000000000000000000000000001010
00000000000000000000000000110111
11111111111111111111111110011000
00000000000000000000000100001011
00000000000000000000000011101000
00000000000000000000000000000000
00000000000000000000000001000111
00000000000000000000000101110011
11111111111111111111111110100101
00000000000000000000000010101100
00000000000000000000000001100000
11111111111111111111111100101111
00000000000000000000000011010110
11111111111111111111111101100000
00000000000000000000000001100011
11111111111111111111111111111110
00000000000000000000000011011001
00000000000000000000000110100111
11111111111111111111111001111111
11111111111111111111111011010101
11111111111111111111111100011110
00000000000000000000000001011000
00000000000000000000000000111101
00000000000000000000000001110101
11111111111111111111111111010001
00000000000000000000000000010010
11111111111111111111111101001101
11111111111111111111111111011111
11111111111111111111111111011110
00000000000000000000000000111101
11111111111111111111111100001101
11111111111111111111111100100101
00000000000000000000000011100011
00000000000000000000000001010110
11111111111111111111111011101011
00000000000000000000000000111010
00000000000000000000000110001110
11111111111111111111111100001101
11111111111111111111111101010100
11111111111111111111111011011111
00000000000000000000000001101100
00000000000000000000000011010001
11111111111111111111111111101110
11111111111111111111111100110000
00000000000000000000000000001011
11111111111111111111111101101111
11111111111111111111111100111011
11111111111111111111111111101010
11111111111111111111111101011101
00000000000000000000000011101100
