00000000000000000000000110000010
11111111111111111111111111111111
00000000000000000000000000000000
00000000000000000000001010011010
11111111111111111111111111101010
11111111111111111111111111101101
00000000000000000000000001100011
00000000000000000000000000000000
00000000000000000000000000000000
00000000000000000000000010010001
11111111111111111111111110001100
00000000000000000000000010110111
00000000000000000000000111010000
00000000000000000000001101010011
00000000000000000000000000000000
00000000000000000000000000000000
00000000000000000000000000000000
00000000000000000000001011010010
00000000000000000000000000000000
00000000000000000000000111001111
11111111111111111111111111111111
00000000000000000000000000000000
11111111111111111111111101110011
00000000000000000000000000000000
00000000000000000000000101001100
00000000000000000000000000000000
11111111111111111111111110110010
00000000000000000000000010001111
00000000000000000000000001010010
00000000000000000000000000000000
00000000000000000000000000000000
00000000000000000000000101111100
00000000000000000000000000000000
00000000000000000000000000000000
00000000000000000000000000000000
00000000000000000000000001110001
11111111111111111111111111100011
11111111111111111111111111111111
00000000000000000000000100001011
00000000000000000000000000000000
11111111111111111111111111010110
00000000000000000000000000000000
00000000000000000000000000000000
00000000000000000000000000110101
00000000000000000000000000000000
00000000000000000000000000000000
00000000000000000000000000000000
11111111111111111111111111111111
00000000000000000000000011001101
11111111111111111111111111111110
00000000000000000000000000000000
00000000000000000000000000000000
00000000000000000000000000000000
00000000000000000000001001000100
00000000000000000000000000000000
00000000000000000000000100000111
00000000000000000000000000000000
00000000000000000000000000010101
00000000000000000000000000000000
00000000000000000000000000000000
00000000000000000000000011011001
11111111111111111111111101000101
00000000000000000000000000000000
00000000000000000000010001011010
