00000000000000000000000001000001
00000000000000000000000001011111
00000000000000000000000000101100
00000000000000000000000011100001
00000000000000000000000100000111
00000000000000000000000101010011
00000000000000000000000001100001
00000000000000000000000001100011
00000000000000000000000001100110
00000000000000000000000001100010
00000000000000000000000001101100
00000000000000000000000000010010
11111111111111111111111110100001
00000000000000000000000001100001
00000000000000000000000001001101
00000000000000000000000001101111
00000000000000000000000001010101
00000000000000000000001000011101
11111111111111111111111101011001
11111111111111111111111111111001
11111111111111111111111111010011
00000000000000000000000010010000
00000000000000000000000010100000
00000000000000000000000010111010
11111111111111111111111111101101
00000000000000000000000010111100
11111111111111111111111111111100
00000000000000000000000010011101
11111111111111111111111111010001
00000000000000000000000000111011
00000000000000000000000010110001
00000000000000000000000100011111
00000000000000000000000010001111
00000000000000000000000010011100
11111111111111111111111110011111
00000000000000000000000000011111
11111111111111111111111111110011
00000000000000000000001001111110
11111111111111111111111110010010
00000000000000000000000001000011
11111111111111111111111111111011
11111111111111111111111101101110
00000000000000000000000011101010
00000000000000000000000101001101
00000000000000000000000001010011
00000000000000000000000011010010
00000000000000000000001000011000
11111111111111111111111111111110
11111111111111111111111111101100
00000000000000000000000001001000
00000000000000000000000011110010
00000000000000000000000001010000
11111111111111111111111110111001
00000000000000000000000001000111
00000000000000000000010001011001
00000000000000000000000000100111
00000000000000000000000010001010
00000000000000000000000010010110
00000000000000000000000001110100
00000000000000000000000101111001
00000000000000000000000011001100
11111111111111111111111111000100
00000000000000000000000111110000
00000000000000000000000000101100
00000000000000000000000010100101
00000000000000000000000001100100
00000000000000000000000000110011
00000000000000000000001111000111
00000000000000000000000010101001
00000000000000000000000010001111
00000000000000000000000011110100
00000000000000000000000101000010
00000000000000000000000001101011
00000000000000000000000000110011
00000000000000000000000001110111
00000000000000000000000001101110
00000000000000000000000011010001
00000000000000000000000100110001
11111111111111111111111111011100
00000000000000000000000001100001
00000000000000000000000001110101
00000000000000000000000010010111
00000000000000000000000100110101
00000000000000000000000101000110
00000000000000000000000001101111
00000000000000000000000000101110
11111111111111111111111101110101
00000000000000000000000001111011
00000000000000000000000011000001
00000000000000000000000000100110
00000000000000000000000000001000
00000000000000000000000001001100
00000000000000000000000101101101
11111111111111111111111110010000
00000000000000000000000110111000
00000000000000000000000010110110
00000000000000000000000011110010
00000000000000000000000001110011
00000000000000000000000000001101
00000000000000000000000101000001
11111111111111111111111111011010
00000000000000000000000010001111
00000000000000000000000000110101
00000000000000000000000100101000
00000000000000000000000001001111
00000000000000000000000000110101
00000000000000000000001000110101
00000000000000000000000010001111
11111111111111111111111110111101
00000000000000000000000001001100
00000000000000000000000010110000
00000000000000000000000011001111
00000000000000000000000001110110
00000000000000000000000101011011
11111111111111111111111111111100
00000000000000000000000000111010
00000000000000000000000001100111
00000000000000000000000001000111
00000000000000000000000010010110
00000000000000000000000010011111
00000000000000000000000001011010
00000000000000000000000000010000
00000000000000000000000101100100
00000000000000000000000101100000
00000000000000000000000001110000
00000000000000000000000011000000
00000000000000000000000100100111
00000000000000000000000100101110
00000000000000000000000101110011
00000000000000000000000100011101
11111111111111111111111111000111
00000000000000000000000111010101
00000000000000000000000000101100
00000000000000000000000101000011
00000000000000000000000000101110
00000000000000000000000000011010
00000000000000000000000110010110
00000000000000000000000011100011
00000000000000000000000100100000
00000000000000000000000001010011
11111111111111111111111111010010
00000000000000000000000010010111
00000000000000000000000000010101
00000000000000000000000011000011
00000000000000000000000100000001
00000000000000000000000001100111
00000000000000000000000001110101
00000000000000000000000010101000
00000000000000000000000000100001
00000000000000000000000000001110
00000000000000000000000001010010
00000000000000000000000010000100
00000000000000000000000001100000
11111111111111111111111110110001
00000000000000000000000000010011
00000000000000000000000110100010
00000000000000000000000011011011
00000000000000000000000011010010
00000000000000000000000010001010
00000000000000000000000011101100
11111111111111111111111110100100
00000000000000000000000000101111
00000000000000000000000001111111
00000000000000000000000001010000
00000000000000000000000001000001
00000000000000000000000010110011
11111111111111111111111111000001
00000000000000000000000011000001
00000000000000000000000101011101
00000000000000000000000000111001
00000000000000000000000011010001
00000000000000000000000011000001
00000000000000000000000001001001
00000000000000000000000001101000
00000000000000000000000010101101
00000000000000000000000000100101
11111111111111111111111111010100
11111111111111111111111111110110
00000000000000000000000001100001
00000000000000000000000000110011
00000000000000000000000010001110
00000000000000000000000000011100
00000000000000000000000010011001
00000000000000000000000001100011
11111111111111111111111100110001
00000000000000000000000110000011
00000000000000000000000010011111
00000000000000000000000001111000
00000000000000000000000001011001
11111111111111111111111110000111
00000000000000000000000010100001
11111111111111111111111100101100
11111111111111111111111111001110
11111111111111111111111110111001
00000000000000000000000101011100
00000000000000000000000011000111
00000000000000000000000101101011
00000000000000000000000011011111
00000000000000000000000110011100
11111111111111111111111111111011
00000000000000000000000011001111
11111111111111111111111111100010
00000000000000000000000011100001
00000000000000000000000100111101
00000000000000000000000100000101
11111111111111111111111011000001
11111111111111111111111011101100
00000000000000000000000000110001
00000000000000000000000011111001
00000000000000000000000010010101
00000000000000000000000000101011
00000000000000000000000000100110
00000000000000000000000111011110
00000000000000000000000010101111
00000000000000000000000010111111
00000000000000000000000010111101
11111111111111111111111110011100
00000000000000000000000001001000
00000000000000000000000010101011
00000000000000000000000001000110
00000000000000000000000001100101
00000000000000000000000001001010
00000000000000000000000001111001
00000000000000000000000001000111
00000000000000000000000110111001
11111111111111111111111111001011
11111111111111111111111110010111
00000000000000000000000010010101
00000000000000000000000000001100
00000000000000000000000010011100
00000000000000000000000100101110
00000000000000000000000000111001
00000000000000000000000001011001
00000000000000000000000011111001
00000000000000000000000000110101
11111111111111111111111110011000
00000000000000000000000110000001
00000000000000000000000000100011
00000000000000000000000001101100
00000000000000000000000101110000
11111111111111111111111110010100
00000000000000000000000001100100
11111111111111111111111111100111
00000000000000000000000110000100
00000000000000000000000000100011
00000000000000000000000011101010
00000000000000000000000000111110
00000000000000000000000011100011
00000000000000000000000011011110
00000000000000000000000101000010
11111111111111111111111110001011
00000000000000000000000001011010
11111111111111111111111111011010
00000000000000000000000000000100
00000000000000000000000010111111
00000000000000000000000100000000
