1111111111111111
0001101011000000
1110010010010111
0011001111101110
0001101100010001
1111111111111111
0000000000000000
1111111111111111
0000000000000000
0010000010000101
1110111101010010
1111111111111111
0000000110011011
1110010110011100
0010100011001111
1111111111111111
0000000000000000
1111111111111111
1111111111111111
1111111111111111
0000000000000000
1111111111111111
1111111111111111
1111111111111111
1111111111111111
1111111111111111
1111111111111111
1111111111111111
1111111111111111
1111111111111111
1111111111111111
1111111111111111
1111111111111111
0000000000000000
1111111111111111
1111111111111111
0000000000000000
1111111111111111
1111111111111111
1111111111111111
1111111111111111
0000000000000000
0000000000000000
0000000000000000
1111111111111111
0000000000000000
0000000000000000
1111111111111111
0000000000000000
0000010100001011
0000001000101110
1110101010101101
0010110110001110
0000000000000000
0000000000000000
1111111111111111
1111111111111111
1110111101100110
0001010001101011
1111111111111111
0000101001000110
1111001011001101
0000111011101100
0000000000000000
1111111111111111
0000001111010111
1111111010111011
1111111000111111
0000001100011111
0000000000000000
1111111111111111
1111111111111111
1111111111111111
0000011110110011
0000000111011100
1111111111111111
1111100000011100
0000001000110010
0000000100010101
1111111111111111
0000000000000000
1110000010100010
0000111110010110
1101111110011010
0001110001110001
0000000000000000
0000000000000000
0000000000000000
0000000000000000
0001101100111011
0001111111110010
0000000000000000
0000100010100100
1111111110010111
1111010001000101
0000000000000000
0000000000000000
0000101110011101
1101101111111101
0000100100100111
0001111111111100
0000000000000000
0000000000000000
1111111111111111
0000000000000000
0000011011000101
0000100110001111
0000000000000000
1111000011111010
0001101010101010
1111011011101001
0000000000000000
1111111111111111
1111111111111111
0000000000000000
0000000000000000
0000000000000000
0000000000000000
1111111111111111
0000000000000000
0000000000000000
0000000000000000
0000000000000000
1111111111111111
0000000000000000
0000000000000000
1111111111111111
0000000000000000
0000000000000000
0000000000000000
0000000000000000
0000000000000000
0000000000000000
1111111111111111
1111111111111111
0000000000000000
0000000000000000
1111111111111111
1111111111111111
1111111111111111
0000000000000000
1111111111111111
1111111111111111
0000000000000000
0000000000000000
1110110110000110
1110111111100001
0001101100110010
1110111001110011
0000000000000000
0000000000000000
0000000000000000
0000000000000000
1101111101110001
0001001001111011
0000000000000000
0000000010111110
0000111001111000
0010101001100011
0000000000000000
1111111111111111
0000010000100010
0000000011111010
0000000101001001
1110000000100100
0000000000000000
0000000000000000
0000000000000000
1111111111111111
1111110010001000
1111001000101110
0000000000000000
0000000000111110
0001100111111101
0000000100101011
1111111111111111
0000000000000000
1110110000000110
1111111110000010
1110011101110001
1111111111100101
0000000000000000
0000000000000000
0000000000000000
1111111111111111
1111110111110010
1111101111010111
0000000000000000
0000010111000001
0000110000010011
0001000101111111
0000000000000000
0000000000000000
0001011110111100
1111011110100000
1111011010010000
1110011111000110
1111111111111111
0000000000000000
0000000000000000
0000000000000000
0000101101010101
1111010001110110
0000000000000000
0000111101110001
0001010101101110
0011010110010001
0000000000000000
0000000000000000
0000001000010000
0000110001010100
0000011000010011
1111110011100011
0000000000000000
0000000000000000
1111111111111111
0000000000000000
0000001010110110
0000010010100101
1111111111111111
0110010011010111
1111110111001000
1111110001101111
1111111111111111
0000000000000000
0000000000000000
0000000000000000
0000000000000000
0000000000000000
0000000000000000
1111111111111111
0000000000000000
0000000000000000
1111111111111111
1111111111111111
0000000000000000
0000000000000000
1111111111111111
1111111111111111
0000000000000000
0000000000000000
0000000000000000
0000000000000000
0000000000000000
0000000000000000
1111111111111111
1111111111111111
1111111111111111
1111111111111111
1111111111111111
1111111111111111
0000000000000000
0000000000000000
1111111111111111
1111111111111111
0000000000000000
1111111111111111
0000000000000000
0000000000000000
0000000000000000
0000000000000000
1111111111111111
1111111111111111
1111111111111111
0000000000000000
1111111111111111
1111111111111111
0000000000000000
0000000000000000
1111111111111111
1111111111111111
0000000000000000
0000000000000000
0011001001000110
0000001000110001
1111011101010010
0000011110011000
1111111111111111
1111111111111111
1111111111111111
1111111111111111
1111100001010100
0100001011101101
0000000000000000
1111111000000110
0000001110100111
0000010101100101
1111111111111111
0000000000000000
0000000000000000
1111111111111111
1111111111111111
0000000000000000
0000000000000000
0000000000000000
1111111111111111
1111111111111111
0000000000000000
0000000000000000
1111111111111111
1111111111111111
0000000000000000
0000000000000000
1111111111111111
0000000000000000
1111111010101110
0001000010001101
1101110001111100
1111111001111111
0000000000000000
1111111111111111
0000000000000000
1111111111111111
1111000110001001
0001100000001100
1111111111111111
0000101110010100
0001010010100010
0000100011101000
0000000000000000
0000000000000000
0000000000000000
0000000000000000
1111111111111111
1111111111111111
0000000000000000
1111111111111111
1111111111111111
1111111111111111
0000000000000000
0000000000000000
1111111111111111
1111111111111111
1111111111111111
0000000000000000
0000000000000000
0000000000000000
0000000000000000
0000000000000000
0000000000000000
0000000000000000
0000000000000000
0000000000000000
0000000000000000
0000000000000000
1111111111111111
1111111111111111
0000000000000000
0000000000000000
1111111111111111
1111111111111111
1111111111111111
0000000000000000
0000010111110011
0000000001001101
0000001100010010
0000110000110111
0000000000000000
0000000000000000
1111111111111111
0000000000000000
0000001000011110
0000010111011111
1111111111111111
1100010110011011
0001001011000101
0000000011011000
0000000000000000
0000000000000000
0000000000000000
0000000000000000
0000000000000000
0000000000000000
0000000000000000
1111111111111111
0000000000000000
1111111111111111
1111111111111111
1111111111111111
0000000000000000
0000000000000000
1111111111111111
1111111111111111
1111111111111111
0000000000000000
0011010011111111
0000000011010111
0001011001001001
0000000001101001
0000000000000000
0000000000000000
0000000000000000
0000000000000000
1101101111111001
1100111101001101
0000000000000000
0000010010000010
0001000101010100
0001100101010001
0000000000000000
1111111111111111
0000000000000000
0000000000000000
0000000000000000
0000000000000000
0000000000000000
0000000000000000
1111111111111111
1111111111111111
1111111111111111
1111111111111111
0000000000000000
0000000000000000
1111111111111111
1111111111111111
1111111111111111
0000000000000000
1111010011011100
0000011111011011
0000110000101110
0000000110101100
0000000000000000
0000000000000000
0000000000000000
0000000000000000
0001101111011100
1101001000011000
1111111111111111
0000001110011011
0000110101110100
1111110100111101
0000000000000000
1111111111111111
1101010100011011
0000111110111000
0001100110001011
0001101110010101
0000000000000000
0000000000000000
1111111111111111
0000000000000000
0001011011101011
0000001101111011
1111111111111111
0000100101000011
1111110100011101
1111100110010110
0000000000000000
0000000000000000
1111010011010101
0000111101001010
0000011110000111
0001001101110010
0000000000000000
0000000000000000
0000000000000000
0000000000000000
0001000100111111
1011011000111010
1111111111111111
0000011000100100
0000101100000101
1110111000110101
0000000000000000
0000000000000000
0000000000000000
1111111111111111
1111111111111111
0000000000000000
0000000000000000
0000000000000000
1111111111111111
0000000000000000
0000000000000000
0000000000000000
1111111111111111
1111111111111111
0000000000000000
0000000000000000
0000000000000000
1111111111111111
1111111111111111
0000000000000000
0000000000000000
1111111111111111
0000000000000000
0000000000000000
1111111111111111
1111111111111111
1111111111111111
0000000000000000
1111111111111111
0000000000000000
0000000000000000
0000000000000000
0000000000000000
0000000000000000
0001001100011010
0000010101101100
1010101000100100
0000110011000000
0000000000000000
0000000000000000
0000000000000000
0000000000000000
0000000100101000
0000101000000100
0000000000000000
0000010111101111
0000010011101111
0000010101100110
0000000000000000
0000000000000000
0000000000000000
0000000000000000
0000000000000000
0000000000000000
0000000000000000
1111111111111111
0000000000000000
1111111111111111
1111111111111111
1111111111111111
1111111111111111
0000000000000000
1111111111111111
1111111111111111
1111111111111111
1111111111111111
1111111111111111
1111111111111111
0000000000000000
1111111111111111
1111111111111111
1111111111111111
1111111111111111
1111111111111111
1111111111111111
0000000000000000
0000000000000000
0000000000000000
0000000000000000
0000000000000000
1111111111111111
0000000000000000
0000000000000000
0000000000000000
0000000000000000
0000000000000000
0000000000000000
1111111111111111
1111111111111111
0000000000000000
1111111111111111
1111111111111111
0000000000000000
0000000000000000
1111111111111111
1111111111111111
1111111111111111
0000000000000000
0000100100100111
0000100010001011
1111100100101110
1111011000110000
0000000000000000
1111111111111111
0000000000000000
1111111111111111
1110100110011010
0000101000111100
0000000000000000
0000001101000100
0001001000111111
1111111001110001
0000000000000000
0000000000000000
0001011011011010
1111010010110000
1101100010011001
1111011010011000
0000000000000000
1111111111111111
0000000000000000
0000000000000000
0001110000110111
1101111011010110
0000000000000000
0000000101111101
0000100011101101
0001110100111010
0000000000000000
1111111111111111
1111111111111111
0000000000000000
1111111111111111
0000000000000000
0000000000000000
1111111111111111
1111111111111111
1111111111111111
1111111111111111
0000000000000000
0000000000000000
0000000000000000
0000000000000000
1111111111111111
1111111111111111
1111111111111111
1101111010111111
1110111010111100
1111001011001001
1111110100010000
0000000000000000
1111111111111111
0000000000000000
0000000000000000
0010001010010001
0010101100110011
0000000000000000
0000000111101110
0000100101101001
0010010001001001
1111111111111111
0000000000000000
1111111111111111
0000000000000000
0000000000000000
1111111111111111
1111111111111111
0000000000000000
1111111111111111
0000000000000000
1111111111111111
0000000000000000
1111111111111111
0000000000000000
0000000000000000
0000000000000000
1111111111111111
0000000000000000
1011110110110100
0000001111010011
0000100001000001
0000100001101000
0000000000000000
0000000000000000
0000000000000000
0000000000000000
0000101100011011
0000100010000010
1111111111111111
0000010110000000
0000101111100110
0000011111011011
0000000000000000
0000000000000000
0000000000000000
0000000000000000
0000000000000000
0000000000000000
0000000000000000
1111111111111111
1111111111111111
0000000000000000
1111111111111111
1111111111111111
0000000000000000
0000000000000000
1111111111111111
1111111111111111
1111111111111111
1111111111111111
1111111111111111
0000000000000000
0000000000000000
0000000000000000
1111111111111111
0000000000000000
1111111111111111
1111111111111111
0000000000000000
0000000000000000
1111111111111111
0000000000000000
0000000000000000
1111111111111111
1111111111111111
0000000000000000
1111001011100010
1111011010000111
1111011110101111
0001011111000110
0000000000000000
0000000000000000
0000000000000000
0000000000000000
1111111010010111
0000000000011001
1111111111111111
1111111101011110
1111011101011100
0000110010010001
1111111111111111
1111111111111111
1111111111111111
0000000000000000
0000000000000000
0000000000000000
1111111111111111
1111111111111111
0000000000000000
0000000000000000
0000000000000000
0000000000000000
1111111111111111
0000000000000000
0000000000000000
1111111111111111
0000000000000000
0000000000000000
1111111111111111
0000000000000000
0000000000000000
1111111111111111
1111111111111111
0000000000000000
1111111111111111
1111111111111111
0000000000000000
0000000000000000
0000000000000000
0000000000000000
0000000000000000
1111111111111111
1111111111111111
1111111111111111
1111111111111111
0000000000000000
0000000000000000
0000000000000000
0000000000000000
0000000000000000
0000000000000000
0000000000000000
0000000000000000
0000000000000000
0000000000000000
0000000000000000
0000000000000000
1111111111111111
0000000000000000
1111111111111111
1111111111111111
0000000000000000
1111111111111111
0000000000000000
1111111111111111
1111111111111111
1111111111111111
0000000000000000
0000000000000000
1111111111111111
1111111111111111
0000000000000000
0000000000000000
1111111111111111
0000000000000000
0000000000000000
0000110011010101
0001111111001000
0001010000000001
0010011010011001
0000000000000000
0000000000000000
0000000000000000
1111111111111111
1110101100110110
1111000101010011
1111111111111111
0000101011001110
0000001110010111
1101101001011111
1111111111111111
0000000000000000
1110001101000010
0001010000011111
0010110100000111
0001100000011000
0000000000000000
0000000000000000
0000000000000000
0000000000000000
1101100100111101
0001110000001010
0000000000000000
0000010101011010
0000010101110010
1110101110001110
0000000000000000
0000000000000000
1111111111111111
0000000000000000
1111111111111111
1111111111111111
1111111111111111
1111111111111111
1111111111111111
0000000000000000
1111111111111111
1111111111111111
1111111111111111
0000000000000000
1111111111111111
1111111111111111
0000000000000000
0000000000000000
0000000000000000
1111111111111111
1111111111111111
0000000000000000
0000000000000000
1111111111111111
1111111111111111
1111111111111111
0000000000000000
0000000000000000
0000000000000000
1111111111111111
0000000000000000
0000000000000000
1111111111111111
0000000000000000
1111111111111111
0000000000000000
0000000000000000
1111111111111111
1111111111111111
0000000000000000
1111111111111111
0000000000000000
1111111111111111
1111111111111111
0000000000000000
0000000000000000
1111111111111111
1111111111111111
0000000000000000
0000000000000000
1111110011000010
0101001000110100
0000001000011100
1111111110011100
1111111111111111
1111111111111111
1111111111111111
0000000000000000
0000000001101000
1111111010110101
1111111111111111
1110000100100110
1110111101000010
0010111000011011
0000000000000000
1111111111111111
1111111111111111
0000000000000000
0000000000000000
1111111111111111
1111111111111111
0000000000000000
0000000000000000
0000000000000000
1111111111111111
0000000000000000
0000000000000000
0000000000000000
0000000000000000
0000000000000000
1111111111111111
1111111111111111
0001100010111101
0001100011000111
1110010100010101
0001111110011100
0000000000000000
0000000000000000
1111111111111111
1111111111111111
0010101010101110
1110001100010111
1111111111111111
0000011011000010
1111101101010001
1101101101100001
1111111111111111
0000000000000000
0000000000000000
1111111111111111
1111111111111111
1111111111111111
0000000000000000
1111111111111111
1111111111111111
1111111111111111
0000000000000000
0000000000000000
1111111111111111
1111111111111111
0000000000000000
0000000000000000
0000000000000000
1111111111111111
1100010010110000
1110100001101011
0001111101011010
1110111011000010
0000000000000000
0000000000000000
0000000000000000
0000000000000000
0000000001001110
1110111100100010
1111111111111111
1111111101111011
0000110000100001
0010101000010101
0000000000000000
0000000000000000
0000000000000000
0000000000000000
0000000000000000
0000000000000000
0000000000000000
0000000000000000
0000000000000000
1111111111111111
0000000000000000
0000000000000000
1111111111111111
1111111111111111
0000000000000000
0000000000000000
0000000000000000
0000000000000000
0000000000000000
0000000000000000
0000000000000000
0000000000000000
1111111111111111
1111111111111111
0000000000000000
1111111111111111
1111111111111111
1111111111111111
1111111111111111
0000000000000000
1111111111111111
1111111111111111
1111111111111111
0000000000000000
0000110101101011
0000001011110000
0000000101010101
0000100111010100
0000000000000000
0000000000000000
0000000000000000
1111111111111111
1010010001011000
0000101101110010
0000000000000000
0000010001011011
0000110111110000
0000101100110110
0000000000000000
1111111111111111
0000101000011111
1101001000010011
0000011101010010
0000100001010010
0000000000000000
1111111111111111
1111111111111111
0000000000000000
0000001111100011
0000100010100000
1111111111111111
0011010111100101
0000111000100000
1111011100101001
0000000000000000
1111111111111111
0000000000000000
0000000000000000
1111111111111111
0000000000000000
0000000000000000
1111111111111111
1111111111111111
0000000000000000
0000000000000000
1111111111111111
0000000000000000
1111111111111111
1111111111111111
0000000000000000
0000000000000000
1111111111111111
0000101111110100
0010101110100010
0001100011100000
1111001111111001
0000000000000000
1111111111111111
1111111111111111
1111111111111111
0001101111111010
0000110101100010
1111111111111111
1111100000111001
0011101100110110
1110101100100111
1111111111111111
